[PAD]
[UNK]
[CLS]
[SEP]
[MASK]
<S>
<T>
!
"
#
$
%
&
'
(
)
*
+
,
-
.
/
0
1
2
3
4
5
6
7
8
9
:
;
<
=
>
?
@
[
\
]
^
_
`
a
b
c
d
e
f
g
h
i
j
k
l
m
n
o
p
q
r
s
t
u
v
w
x
y
z
{
|
}
~
¡
¢
£
¤
¥
¦
§
¨
©
«
¬
®
¯
°
±
²
³
´
µ
¶
·
¸
¹
º
»
¼
½
¾
¿
×
ß
æ
ð
÷
ø
þ
đ
ħ
ı
ł
œ
ƒ
ə
ʸ
ʻ
ʼ
ˈ
˚
˜
͵
α
β
γ
δ
ε
η
θ
ι
κ
λ
μ
ν
ο
π
ρ
ς
σ
τ
υ
φ
ω
а
б
в
г
д
е
ж
з
и
к
л
м
н
о
п
р
с
т
у
ф
х
ц
ч
ш
щ
ы
ь
ю
я
ѕ
і
։
א
ב
ה
ו
י
ל
ר
ש
ת
،
ء
ا
ب
ة
ت
ث
ج
ح
خ
د
ذ
ر
ز
س
ش
ص
ض
ط
ظ
ع
غ
ف
ق
ك
ل
م
ن
ه
و
ى
ي
پ
ک
ی
अ
आ
इ
ई
उ
ए
औ
क
ख
ग
च
छ
ज
ट
ठ
ड
ण
त
थ
द
ध
न
प
फ
ब
भ
म
य
र
ल
व
श
ष
स
ह
ा
ि
ी
ो
।
॥
ক
ন
প
ম
র
শ
স
ঽ
া
০
১
২
৩
৪
৫
৬
৭
৮
৯
৲
৳
৹
৺
க
ச
ட
த
ந
ன
ப
ம
ய
ர
ற
ல
ள
வ
ா
ி
ு
ெ
ே
ை
ო
ᄀ
ᄂ
ᄃ
ᄅ
ᄆ
ᄇ
ᄉ
ᄋ
ᄌ
ᄎ
ᄐ
ᄑ
ᄒ
ᅡ
ᅢ
ᅥ
ᅦ
ᅧ
ᅩ
ᅪ
ᅮ
ᅳ
ᅴ
ᅵ
ᆨ
ᆫ
ᆯ
ᆷ
ᆸ
ᆻ
ᆼ
‐
‑
‒
–
—
―
‘
’
‚
“
”
„
†
•
…
′
″
‹
›
‼
⁄
⁰
₂
₃
₦
€
₹
⃣
ℓ
℠
™
⅓
⅔
←
→
↓
∆
−
√
≤
≥
ⓐ
ⓘ
ⓛ
ⓟ
ⓢ
ⓣ
─
■
▪
▶
▸
►
◄
○
●
☀
★
☆
☕
☘
☝
☺
♀
♂
♠
♡
♣
♥
♦
⚡
⚪
⚽
⚾
✅
✈
✊
✌
✓
✔
✘
✞
✤
✨
✪
✭
✰
❄
❌
❖
❗
❤
❥
➜
➡
⠀
⬇
⭐
、
。
「
」
あ
い
う
え
お
か
き
く
け
こ
さ
し
す
せ
そ
た
ち
っ
つ
て
と
な
に
の
は
ほ
ま
も
ゃ
ょ
よ
ら
り
る
れ
ろ
わ
を
ん
ク
シ
ツ
ト
ン
・
ー
ㅤ
一
三
上
下
不
世
业
东
並
个
中
为
主
之
九
也
了
事
二
于
些
交
产
京
人
亿
仁
今
他
以
们
任
但
位
低
何
作
你
來
例
供
保
信
個
們
债
健
元
光
入
內
全
公
共
其
出
分
利
到
制
券
前
劉
力
加
务
動
務
包
化
北
區
十
卐
南
博
原
去
及
反
发
口
句
可
台
司
合
同
名
向
吳
告
和
品
哲
售
商
嘉
回
因
国
國
園
團
在
地
型
城
基
報
場
增
外
多
大
天
她
好
如
子
學
宏
宗
定
客
家
将
將
對
小
就
展
山
州
工
已
市
布
常
平
年
府
度
康
建
式
張
影
後
徐
得
德
心
志
性
您
情
惠
意
應
成
我
或
戰
所
投
持
指
控
提
支
收
政
教
整
數
文
新
方
於
日
明
星
是
時
景
更
最
會
月
有
服
望
朝
期
本
李
来
東
极
林
果
柯
條
業
樂
模
機
款
正
此
比
民
水
永
沒
法
流
海
深
清
港
源
準
灣
為
物
特
率
玉
王
現
理
生
產
用
由
發
的
目
相
看
石
研
確
示
社
私
科
租
究
立
第
等
管
系
約
級
經
繼
續
级
经
绿
美
義
習
者
而
聞
股
能
自
至
與
舞
花
英
華
蔡
行
表
被
西
要
視
計
許
評
詞
該
誉
認
說
譽
讀
變
评
費
資
賴
资
起
超
路
車
近
这
這
通
週
進
過
道
遠
還
部
都
鄭
重
量
金
銀
鋼
長
開
間
閱
關
间
限
院
陳
隱
集
電
面
頭
项
風
館
馆
首
馬
體
高
鴻
黃
點
ﬀ
ﬁ
ﬂ
（
）
，
－
：
？
ａ
ｈ
￼
🇦
🇧
🇨
🇩
🇪
🇬
🇭
🇮
🇯
🇲
🇳
🇵
🇷
🇸
🇹
🇺
🇿
🌈
🌊
🌟
🌭
🌴
🌸
🌹
🌺
🌻
🍋
🍒
🍩
🍷
🍺
🍻
🍾
🎂
🎄
🎅
🎈
🎉
🎊
🎟
🎤
🎥
🎵
🎶
🏀
🏆
🏈
🏳
🏴
🏻
🏼
🏽
🏾
🏿
🐇
🐘
🐝
🐣
🐰
🐻
🐾
👀
👇
👉
👊
👋
👌
👍
👎
👏
👑
👧
👩
👶
💀
💁
💃
💋
💍
💎
💔
💕
💖
💗
💘
💙
💚
💛
💜
💞
💥
💦
💪
💫
💯
📰
📷
📸
📺
🔊
🔘
🔜
🔥
🔴
🔵
🕺
🖤
🗣
🗽
😀
😁
😂
😃
😅
😆
😇
😉
😊
😍
😎
😏
😒
😔
😘
😜
😡
😢
😣
😩
😪
😬
😭
😮
😱
😳
🙂
🙃
🙄
🙈
🙌
🙏
🚀
🚨
🚮
🤔
🤗
🤘
🤙
🤣
🤦
🤶
🤷
🥂
🥇
🥜
🥤
🦁
🦄
🦋
##a
##s
##e
##h
##i
##t
##1
##8
##0
##x
##r
##o
##m
##p
##b
##w
##d
##n
##c
##u
##l
##f
##y
##z
##6
##4
##9
##k
##2
##5
##3
##g
##¨
##v
##7
##j
##q
##´
##ل
##ش
##ي
##خ
##в
##и
##а
##б
##з
##е
##æ
##💃
##€
##œ
##た
##に
##ع
##ب
##°
##ı
##💋
##💎
##🙄
##×
##д
##і
##о
##ι
##δ
##α
##و
##م
##ن
##™
##छ
##🚀
##ю
##р
##г
##у
##н
##®
##🇨
##ر
##ا
##ة
##🇸
##🇺
##♥
##🏽
##🌹
##✨
##ʼ
##🙌
##🏾
##ø
##ह
##ल
##½
##י
##ו
##ط
##🏻
##♀
##♂
##т
##🎉
##💪
##す
##¾
##س
##ت
##ح
##د
##ف
##ث
##🙏
##ł
##ᅩ
##ᄃ
##ᅳ
##ᆫ
##त
##ा
##ز
##🦁
##🔥
##с
##л
##я
##ə
##ﬁ
##ш
##ᅦ
##ᄑ
##💜
##²
##ð
##¦
##ы
##ь
##💍
##😭
##😂
##ه
##🇮
##🇳
##🇦
##ज
##न
##ी
##ि
##क
##ص
##💙
##🏼
##🎤
##🤙
##く
##せ
##い
##ᅡ
##˜
##ق
##🎶
##🎵
##😍
##❤
##ħ
##þ
##ａ
##😬
##м
##º
##đ
##ट
##ो
##ج
##ᅵ
##ᅢ
##ᄒ
##ᄌ
##ᅮ
##ᄉ
##ᄋ
##ए
##स
##ك
##к
##う
##さ
##よ
##き
##ん
##¢
##ᆯ
##ᄅ
##ᄀ
##غ
##🐻
##😎
##🌈
##💘
##υ
##η
##🇹
##х
##©
##λ
##κ
##ض
##¥
##♣
##💚
##💯
##ー
##ン
##る
##ß
##ﬀ
##🔴
##⚪
##व
##😁
##💦
##˚
##र
##わ
##っ
##て
##つ
##の
##ク
##ㅤ
##🤷
##😘
##ᆨ
##ᅥ
##پ
##⚡
##ग
##🤣
##😜
##¤
##द
##य
##🇧
##⃣
##उ
##ˈ
##⁄
##れ
##😉
##ி
##ய
##ம
##க
##🌸
##ᆼ
##ड
##म
##ی
##ک
##🌻
##⠀
##🏆
##🇪
##¸
##し
##ち
##ょ
##🏿
##✔
##¹
##─
##प
##थ
##अ
##💛
##−
##ο
##ς
##¼
##☀
##💁
##ख
##ى
##ன
##ற
##ч
##🇿
##🇭
##¬
##£
##🎅
##🎄
##👶
##と
##σ
##ℓ
##ν
##😇
##💥
##→
##ष
##を
##ゃ
##τ
##★
##☆
##ᅴ
##ذ
##β
##✌
##ρ
##ε
##ᅪ
##ᆷ
##👊
##👑
##ц
##γ
##ω
##ト
##🌺
##ட
##ை
##வ
##ர
##♡
##🎈
##🏳
##ᄂ
##ᄆ
##श
##ظ
##≥
##≤
##😅
##➡
##❄
##😊
##な
##🙂
##п
##³
##🏴
##͵
##え
##👧
##⅔
##ᄎ
##ᆸ
##♦
##ж
##🏈
##🔵
##🥂
##け
##ה
##च
##🏀
##¯
##⚽
##🙈
##ब
##θ
##μ
##🐰
##⚾
##👏
##ई
##🤔
##😩
##😳
##া
##ण
##💀
##ᅧ
##😒
##র
##শ
##ন
##🖤
##ʻ
##ש
##ב
##ת
##फ
##🦄
##👍
##⅓
##ר
##🤗
##👌
##😣
##ச
##ள
##ெ
##ு
##🇷
##℠
##ா
##ப
##ф
##ᆻ
##😮
##ᄇ
##🎂
##ء
##🐝
##🇲
##こ
##ל
##も
##☕
##☘
##✪
##🎥
##💗
##🇬
##💕
##φ
##ら
##🎊
##ध
##±
##🤦
##ѕ
##🤘
##ே
##ல
##は
##✈
##そ
##か
##👇
##💖
##ठ
##シ
##🌭
##த
##☺
##り
##ま
##ﬂ
##щ
##🍩
##🐣
##ほ
##√
##あ
##🐇
##😀
##₂
##µ
##お
##☝
##🇵
##🍻
##❌
##🦋
##⭐
##ⓢ
##ⓘ
##ⓐ
##ろ
##🐾
##ম
##স
##ক
##📰
##📸
##भ
##💔
##✊
##😆
##÷
##￼
##🌴
##ᄐ
##👩
##►
##❗
##ツ
##🕺
##🚨
##א
##👋
##👀
##●
##🍺
##😡
##✅
##📺
##ო
##🙃
##👉
##🔊
##▪
##✭
##🎟
##😢
##✞
##🍷
##😱
##ந
##✰
##💞
##💫
##आ
##🇩
##🌊
##😪
##👎
##🌟
##🍋
##😃
##😏
##📷
##■
##π
##▶
##🇯
##इ
##🥇
##🗽
##⬇
##₹
##🍾
##∆
##ʸ
##🤶
##⁰
##ⓛ
##ⓣ
##🐘
##✘
##↓
##🗣
##🍒
##😔
##ⓟ
##ｈ
##🥤
##ƒ
##🔜
th
##er
the
##in
##on
##en
##es
##or
##at
##ed
##nd
##ar
##ing
##an
in
to
##al
##it
##ou
of
and
##is
##as
##ic
##om
##re
##il
##ion
##ent
##el
##id
##et
##ay
##ec
##st
on
##ot
##le
st
##ac
for
##ur
##ow
##ut
wh
##ol
##ad
##ve
##am
##ig
re
pr
be
##ly
##ers
is
that
it
##ir
##ith
##ter
##ation
##th
with
##im
an
sh
al
as
##ch
##ver
##ill
he
at
##os
ch
##est
##ce
com
fr
was
con
##us
sa
ne
##op
ha
##igh
##ere
##ld
we
##ess
##em
##ag
##ul
tr
you
su
##ak
##ts
##od
##pp
##ear
##ain
said
##oc
##ate
are
##iv
##um
##ore
by
##un
ex
de
se
from
##and
20
##ect
##ity
##ies
this
##art
##ment
his
##ort
##if
or
have
cou
ac
##ab
pl
le
has
##ive
sp
not
go
##all
##ust
##ast
will
##se
##ight
##ist
ab
but
##ack
##ard
##ok
##ial
##ost
##ant
##ud
they
year
ad
##end
br
pro
cl
##ap
##ie
un
ar
##gh
new
wor
##ice
af
##ell
##day
##out
201
##ome
##ia
en
##uc
gr
off
can
up
all
##ip
mar
ag
out
who
##ich
res
comp
their
##ib
##ik
rep
##our
##ound
##ue
per
##ge
more
##her
##ans
inc
man
##ould
tw
##tr
##ong
do
##ough
im
##ions
us
##ide
after
##ine
me
##ame
cr
##ated
exp
##age
one
am
dr
her
had
mon
##ail
rec
##ally
been
tim
about
##ure
##ber
she
so
##ake
##ook
were
##ays
##so
##ous
##ind
##ace
##act
##ire
##ach
##ff
##ub
##ance
##own
fir
pe
##ence
also
which
pol
##av
there
##ther
over
ev
sc
part
int
##ord
##og
when
##ose
its
app
car
##iz
##orm
##ary
##ks
##00
co
##one
fe
##ile
te
acc
##ond
##pt
ind
no
##ian
##ign
coun
##qu
##ree
qu
##ents
dis
str
##ations
##oll
##ely
##ick
comm
##ike
would
get
if
##ish
##ass
ser
##ite
play
just
##aw
first
than
peop
what
time
##ey
##ors
ph
people
ro
two
##ning
##ase
some
##ens
our
em
bl
##able
inv
##ov
high
sec
pre
your
rel
bec
##oin
inter
work
pres
##ket
##oss
dec
cont
##ep
kn
##ct
##ict
how
other
any
##gr
##ition
##ident
imp
##ty
##ade
last
into
op
##ical
##nder
like
##reat
them
##form
##ob
##ild
##ings
##amp
my
##ump
may
##use
##itt
back
##lic
##ates
fl
ass
act
add
##ek
el
##ang
again
min
hel
##ied
par
ever
##oy
##oun
him
##ult
##old
fin
10
##ry
##ason
thr
show
##lud
##ock
sch
##ory
could
most
##are
##ove
##ink
##uct
##enc
report
##iss
##ater
now
##ood
##uring
att
##ues
##anc
##vel
includ
##fer
ap
reg
market
years
under
##ug
##urn
bet
##man
##ational
compan
don
cent
team
##ery
##ious
cons
##ities
##ause
##illion
##ool
##ft
state
bu
while
##hing
##als
##wn
##ement
day
des
##fore
offic
ve
##we
call
19
trump
look
##ating
did
ear
serv
lead
##atch
invest
news
down
win
president
week
need
through
only
##hn
three
gu
##ton
char
every
med
before
##vern
##ath
##cent
rem
##ix
even
supp
##ward
##ah
##bs
during
##ise
##aking
govern
##ublic
def
2017
cour
##ting
##ased
##other
police
prov
##ited
##les
##land
nor
start
help
##ier
##oot
world
well
sm
says
where
bus
low
##ince
say
because
dep
form
sy
end
being
##urr
##air
##br
make
##ph
game
bel
against
##uch
##ected
then
poin
##ash
prod
wr
##orts
##orn
##ro
##get
percent
##ily
contr
ret
##iel
mem
see
##cr
cap
##atur
home
##iew
month
##ank
fam
old
##son
know
##erson
ed
company
season
stud
##ull
sou
these
made
##pl
##ual
col
long
want
##az
good
##io
bo
city
##ices
##ert
##oth
four
ter
many
school
##uss
##ife
run
those
##istr
ke
law
##xt
way
##ven
government
war
ins
second
own
##oup
2018
gen
##ful
gl
set
##ons
##ouse
##hip
##way
take
##eric
ann
going
group
around
inst
should
##cc
##iness
countr
##irect
sign
##und
dem
resp
think
##ollow
##eral
##ection
since
aut
big
##ivers
direct
follow
americ
##au
000
wom
phot
##alk
cle
very
30
##gan
##ames
sl
night
million
here
sur
##ics
loc
##ility
found
12
##earch
told
##ange
right
ma
15
read
monday
open
post
business
##ific
##its
##alth
##ording
##ments
north
##ield
##elf
##ital
##ra
##ee
##iver
contin
##up
bar
del
##ope
trans
still
##olog
##ged
##ner
##ork
id
##ress
det
##let
dif
mid
##ather
##ene
including
##ible
according
public
11
##per
stat
##fl
##ives
much
##ently
bre
##nes
such
head
south
adv
commun
##ott
child
national
sal
sen
support
house
##ative
eff
##led
jo
##att
plan
##ms
##ision
disc
happ
care
cor
top
##ween
both
inform
next
##ered
spec
best
between
##ble
face
##ular
red
star
##ys
##velop
wed
health
##ior
great
iss
leg
far
person
##urs
##ri
##iving
hand
progr
court
develop
official
put
ste
num
prop
val
does
##omet
##iday
grow
##ina
##ister
shar
another
##ency
##ime
##ave
##con
rele
tues
stre
use
prot
eng
##ric
##med
opp
tuesday
conc
##0s
##ets
##ists
##oud
soc
tec
country
##ley
air
##ying
##ont
vis
##ants
##ax
miss
manag
##ved
##ief
life
family
arr
near
sk
spe
though
real
##bers
mor
##ount
fil
lar
##ern
##res
camp
##ights
av
##eng
ob
incre
##gest
har
conf
pass
##ines
met
##read
##ving
sim
sub
sw
pow
pat
##aff
##min
prof
ask
find
curr
intern
14
five
mil
really
information
press
come
200
##ling
##ced
former
##ional
##der
cond
lot
##ever
place
es
ra
wednes
##enn
wednesday
photo
left
cal
##ball
white
vide
##ins
rest
##erg
gre
##line
meet
la
2016
##crib
art
somet
##ird
investig
friday
exper
got
##ember
cre
##ral
##ren
prev
pay
jun
mod
sund
research
##uck
rece
fire
##ody
wind
free
differ
##ised
fac
18
##ject
requ
mus
##ale
##akes
same
##stem
##ecut
##itter
##ually
mov
##ience
##iting
hal
sunday
##ures
pos
oper
13
share
##tt
##ote
stand
polit
system
six
sing
chr
clear
##ele
keep
##view
##ann
##ead
techn
##osp
##ages
program
coll
each
##uary
build
satur
today
vict
fund
ll
##ained
saturday
point
##ng
##iam
russ
##ves
maj
net
##ata
women
cost
##ew
##str
##itch
##uction
##ends
used
later
let
times
feel
##yp
##oad
indust
##ury
eur
auth
beh
united
##arter
##ects
25
##osed
sol
##ering
anal
##over
too
##used
chance
##ism
few
john
foot
called
based
county
fri
turn
apr
17
proc
however
secur
main
16
inj
provid
media
##ize
perform
##ished
poss
expl
depart
bas
econ
fed
sun
road
allow
twitter
march
econom
##ness
kill
##ized
quarter
univers
prom
##ived
aff
sever
video
power
##ued
cloud
est
ris
mr
park
past
major
##ute
##ately
never
##vers
record
##ety
number
hard
event
organ
##aim
vi
announ
##ially
states
##ald
belie
##par
days
pa
##ester
local
won
job
##ways
##gin
appear
##ittle
service
produc
##augh
##red
fact
hold
##app
west
test
quest
import
subs
##book
children
little
##aining
april
distr
ju
deal
glob
attack
things
reported
added
took
points
better
hour
##ains
author
third
##ark
without
##til
tar
##mm
##pr
##ution
##ush
##ague
##unch
games
##iven
cust
move
community
exc
watch
jan
##te
level
lik
##ces
young
##ned
office
##thing
return
partic
york
area
email
water
##ention
##ient
##ats
services
something
interest
sn
away
line
party
sus
didn
##ology
##verage
list
case
##opp
eas
lat
came
making
data
full
saf
tax
##lin
san
ext
members
mc
bank
##oci
ca
##cept
##by
thurs
acr
##ending
associ
thursday
men
less
50
elect
class
hist
players
hum
trad
american
why
june
months
##ony
super
view
##els
half
##side
##ploy
happen
##ted
coach
across
##ipp
money
fut
different
early
##ically
department
alle
story
24
sit
facebook
##ps
claim
polic
went
##ired
league
always
sour
##ured
ir
##ards
##ille
fur
along
security
##ortun
statement
following
##ready
price
already
working
pop
ple
join
bill
##ored
##aken
champ
##ified
compet
several
land
special
step
might
side
##rem
impr
until
chang
##eck
sent
final
center
black
international
university
##co
##ator
social
dev
mostly
##ones
canad
##ium
consid
##ama
image
process
spok
talk
##ple
club
morning
looking
equ
##urch
officials
pot
expected
enter
viol
chief
minister
custom
food
employ
shot
change
love
##ense
##hic
strong
hit
series
susp
doc
typ
kore
jud
having
billion
able
short
global
financ
shoot
##ians
dav
##ison
21
##ission
mich
il
##aign
##thers
##ether
seen
##ane
##ocr
hosp
##ended
##self
cloudy
among
important
complet
invol
ref
match
europe
death
campaign
ang
##oon
small
##wh
committ
##sh
must
ant
general
mat
var
##ought
further
opt
director
live
summ
reach
give
avail
key
##lex
ball
aug
##ox
future
round
ge
growth
visit
sex
##oming
22
field
##be
july
dou
mean
lower
deb
mom
inf
design
div
##acy
##ny
##ville
street
##stand
##ai
asked
tot
seem
addition
whether
colle
students
fun
industry
port
##port
aust
##less
pet
subscrib
100
proble
htt
##ature
vol
washing
##inal
democr
priv
others
close
continue
##inc
lear
forward
##oved
conn
admin
terr
china
try
fall
activ
##ges
taken
target
succ
highs
yet
##iff
##oor
companies
recent
counc
hol
book
##ases
##ances
gir
##ourn
foc
##atic
##ger
##ators
##por
##ees
##utes
getting
23
##go
walk
likely
washington
once
execut
ww
toget
##itions
mot
40
together
least
opportun
##ru
cert
federal
led
project
##lier
##ham
##ensive
access
reports
##aily
crit
##ret
##ference
due
latest
success
##ateg
previous
lim
given
2015
ent
mark
order
fight
board
stock
available
republic
kind
tell
ago
##ential
##ising
woman
##int
##gress
taking
coming
late
administr
##iod
chall
christ
##ival
qual
daily
development
music
##ten
##back
name
political
using
fail
##esh
vehic
www
saying
cut
den
cam
held
repres
##ler
lows
bring
##ably
staff
east
india
##ories
rights
hom
cele
financial
hot
meeting
hospital
goal
period
arrest
started
tal
concern
upd
become
earlier
leaders
council
agre
##ners
trav
girl
drug
ah
analy
los
known
behind
pick
sure
hear
reason
##wards
##ids
town
ident
host
milit
##ults
doing
##umb
ide
##ana
decision
celebr
bit
oct
boy
##omm
##ences
within
brit
gener
sug
tur
gun
break
profess
##itive
##idence
vir
uk
announced
lab
control
capt
##tern
##aft
cop
done
hours
##ides
doesn
##ively
arm
threat
thing
educ
address
comes
light
non
sports
ur
##que
##ars
er
##sel
wa
rul
treat
america
##ech
##uters
gold
aw
##ows
##yn
cho
shares
##erc
enough
policy
ban
canc
discuss
spr
##ench
mph
##ands
wee
##uce
online
room
tit
election
dead
##asing
##work
front
investigation
present
occ
experience
launch
pract
related
current
building
total
bene
mass
##ared
film
pub
lost
buy
fre
bur
appr
lib
##ization
expect
mo
hope
##vert
history
##erv
jack
##field
weeks
desp
technology
lo
dom
##ided
trade
trying
##bert
seven
cred
question
prem
mess
fans
esp
mill
stay
provide
cup
##rap
possible
effect
mult
##ails
outside
vot
check
sales
action
released
proper
rob
result
relations
deliver
partly
dam
played
##idents
##ne
28
donald
##uel
football
init
##oke
capital
journ
represent
pict
sell
ger
minutes
base
clos
human
source
calif
broad
include
##ients
##ex
alm
loss
27
champions
friends
##uation
stop
29
appro
env
average
26
benef
##ibut
risk
##ounds
son
eight
certain
fav
##yr
##ape
body
tem
hu
##off
term
oil
despite
rac
course
saw
##ift
believe
january
orig
victim
administration
##bi
##thern
##uk
often
##venue
phil
december
##lished
issue
winds
tre
commission
##ming
understand
##for
recently
31
##lement
##amed
plans
district
russia
secret
career
reuters
##ergy
mag
review
consum
##cl
##aps
che
##rew
medical
hon
##sw
nation
large
##aged
position
congress
conference
arg
##ability
quick
##ode
rate
killed
febr
release
february
##ament
player
green
playing
david
##aster
contact
austral
##aker
plac
mur
##pper
grand
product
fore
##yle
issues
college
thought
applic
track
infl
increase
##ron
rich
bad
##ds
tom
##af
##igr
thank
##iety
senior
hop
##oring
##ugg
committee
august
almost
suggest
di
##under
##yl
makes
fell
below
squ
energy
##ondon
webs
leader
cook
wanted
space
respons
respond
everyone
korea
##ograp
personal
management
aud
products
bow
##ael
military
tour
##elt
enc
##ams
account
london
summer
demand
##idge
cover
chair
##ender
##ots
sel
nearly
needs
study
dig
afric
pack
link
offer
focus
pen
twe
##iron
performance
je
##akers
const
assist
##ination
particular
199
mal
central
##orms
ahead
begin
rad
crim
region
imm
role
heart
officer
35
creat
##ford
shows
tv
cann
sept
officers
weekend
member
##ibility
##ault
advert
express
ey
comment
fig
higher
suff
##empt
##dle
spokes
ens
strateg
james
##uty
adm
economic
##ivid
##ma
shooting
card
##ither
##medi
##wood
environ
##iter
neg
cand
single
pan
age
famil
currently
wrote
##ample
received
page
confir
##uf
##ify
##ett
##ulation
thunder
someone
angel
showers
signific
everything
ep
means
hill
canada
californ
tor
executive
repl
##ney
site
mother
mater
safety
##orney
interview
conv
##eal
hun
##ilar
pal
bab
died
##iger
attorney
improve
comb
individ
sunny
##nings
soon
cir
##lish
reve
##ba
impact
race
##ips
foreign
running
agency
actually
reb
potential
##joy
amaz
private
california
prob
pain
##aper
##ined
2014
manager
teams
website
##pm
##ico
block
##itting
friend
protest
##ipt
legal
sil
indian
phone
push
environment
countries
sold
couple
##isc
500
##oph
production
rain
justice
authorities
mad
leading
intr
results
instit
alleged
##ument
compl
bal
##bc
insp
##rupt
bud
immedi
education
investment
anything
events
ce
enjoy
##attle
significant
fourth
matter
circ
##ession
##den
william
meas
##imate
moment
inside
60
brand
type
deep
##ength
geor
rev
areas
wasn
fair
##bo
##mp
gar
##orr
##lear
serious
travel
##body
espec
especially
##ona
training
45
wall
##ober
cult
##epend
winning
judge
began
bir
corpor
00
##ara
##selves
independ
##iple
force
michael
evening
nothing
involved
diff
value
please
unc
##ried
##ural
leave
describ
aftern
england
associated
needed
extr
request
##atures
incident
subscribe
mind
october
instead
customers
##ij
##opped
works
himself
analyst
deter
afternoon
gave
dan
opportunity
search
sect
cross
##yan
emerg
tick
scre
isn
pros
similar
##ening
seek
##ops
dog
##uit
alth
problem
##ilities
alex
particip
union
##cement
ok
material
although
https
wild
recomm
annual
thom
vers
german
russian
diffic
anyone
##ogn
##ging
ver
click
island
sched
lives
cit
##ental
upper
via
thunderst
##eter
parents
fly
range
draw
ord
relationship
##iec
tex
reser
file
mart
paul
##anch
reveal
convers
contract
heav
groups
drive
mac
##ades
##ule
rock
202
##bur
father
##ufact
touch
##uff
centre
middle
ground
journal
##ises
manufact
kim
property
prime
vehicle
artic
mob
##istan
##aughter
living
create
##ighb
ham
neighb
cur
award
worth
##tain
scored
doll
##of
brown
content
hall
credit
log
##fully
wife
##omb
candid
terms
analys
matt
pret
church
charl
workers
european
happened
intell
approach
prices
network
thunderstorms
fest
kids
rose
happy
laws
self
beat
##ocks
abs
##yc
forec
biggest
song
date
phys
##aur
ton
##isl
##apan
civ
##itor
##aging
##ady
pur
constr
driving
residents
##ask
syr
worked
above
wel
firm
protect
whole
##itted
##ena
arrested
sup
pull
box
trust
partners
##bed
violence
wood
ul
clin
prior
bat
vill
consider
##eth
##vey
tweet
##cript
##ago
##ude
growing
wal
changes
japan
##na
nine
##ruct
##hold
##mar
##atives
32
difficult
##ston
cash
starting
##ein
leav
bay
purch
schools
##cast
prim
revenue
king
entire
store
additional
situation
published
showed
pitch
else
##ores
legisl
dist
oh
##ram
prepar
anim
indic
regul
attempt
provided
respect
70
bea
niger
quality
surpr
##ino
increasing
goals
stra
wants
##gn
##aught
##han
camer
ach
questions
##itness
mer
rather
gas
##ca
jobs
##ecess
##ements
images
september
##nn
pred
title
traff
##lus
spot
sexual
either
roll
##hood
##ica
conduct
answ
##action
##sc
oppos
vo
recogn
stage
common
whose
specific
analysis
ben
angeles
takes
details
vote
charges
plat
##ograph
##onse
anti
victory
popular
remain
corn
proj
true
hous
ready
##ugh
became
dest
accept
markets
flor
##ilt
suprem
##oo
strugg
##anger
33
response
speed
rs
directly
fast
##ida
championship
republican
scene
##mer
becoming
includes
autom
economy
pressure
terror
hy
regular
swe
##mber
engine
inn
lif
investors
sat
defense
guard
secretary
bi
probably
ath
2013
ont
nove
pic
british
##utions
mel
continued
november
idea
god
displ
##aring
trial
helped
advertis
##arr
accused
##owd
cannot
comments
largest
##me
sand
blue
posted
attr
deg
hus
##imes
minist
##uclear
safe
tab
included
##ha
civil
amb
turned
smith
##come
heard
refer
throughout
industr
##room
brought
prosecut
student
cast
challen
##la
##estern
roy
sam
themselves
##ster
##ya
rout
regard
mcc
aim
fif
shared
pretty
driver
##ened
##enced
recover
thous
##atory
various
36
chic
ful
paid
##band
seg
weather
evidence
straight
intellig
station
teach
challeng
cause
cancer
##ban
families
achie
longer
natur
opening
restaur
##wor
injury
soft
budget
##iers
##reg
##dr
##oid
users
##ceed
communic
doct
mount
cell
acqu
moving
allowed
resour
goog
updates
overall
advis
efforts
unl
costs
unf
model
huge
texas
sett
##acter
scott
charged
tradition
smart
remains
example
pac
hands
runs
jones
insur
##itten
estab
learn
citiz
mis
piec
nuclear
##ites
disp
decided
fear
exist
extrem
conditions
##ume
bord
198
spent
rid
34
bey
peace
##vin
association
gall
norm
coast
treatment
##inese
lou
90
giving
##down
nfl
amount
require
robert
progress
color
sher
felt
perf
practice
daughter
introd
picture
snow
ill
immediately
easy
speak
poll
franc
##oper
##ole
assault
river
issued
increased
simp
##uries
chinese
ways
google
##ills
forecast
platform
spring
cases
charge
scr
mix
expand
pm
hur
seems
##ique
quite
sem
##isions
http
tourn
problems
getty
##lam
##da
exch
lake
wrong
australia
##rect
prison
french
finally
adding
80
rom
##rael
kick
lack
register
senate
employees
70s
weap
crash
tough
ceo
##ci
virgin
separ
income
text
immigr
calls
agreement
##olf
bott
##ware
carry
##ari
ital
reporting
favor
farm
article
turk
sport
##istic
##where
israel
looks
transport
enfor
johnson
##anta
##ky
##ibuted
beach
mike
tried
ensure
sale
bull
effort
businesses
obs
crime
##arm
75
nom
mex
##ung
bowl
las
##onto
bed
##ota
raised
que
injured
constit
created
birth
quickly
rank
goes
ten
extra
clean
athlet
discover
ms
digital
rat
estim
conserv
copyr
movie
##hib
pair
original
previously
rates
chicago
ther
fill
##ension
##xim
mu
retail
##uth
ber
##gas
rh
et
toronto
sens
doub
receive
alleg
copyright
partner
multiple
advertisement
band
ended
rap
defin
##uments
ut
patients
named
double
slow
##icted
failed
##stein
coverage
sle
##ream
##uing
experi
2012
grad
tele
blood
systems
rise
appeared
stories
##encies
society
wond
sector
dise
ran
gard
strength
encour
opened
competition
intelligence
finish
catch
feb
##kn
positive
knew
counter
histor
promot
division
basket
draft
rules
complete
##rel
mic
claims
arch
size
remember
prevent
cities
murder
condition
concerns
window
fem
critic
trip
##ki
##uced
organization
connect
cas
ele
revealed
##west
decl
##fort
necess
signed
gets
closed
followed
perfect
##east
florida
ol
limited
sense
apart
chris
##osh
pak
37
compared
challenge
forces
##opping
continues
fresh
##box
##berg
features
message
talks
looked
western
festival
medic
li
##ective
bond
husband
victims
confirmed
fa
baby
55
##iant
van
eu
charlott
democratic
tournament
jeff
hund
fbi
##ke
##ding
carol
mach
veter
moved
canadian
thousands
missing
lawy
entr
##ipped
##eless
rating
##ounts
attention
apple
##my
france
bag
mobile
emergency
esc
surv
governor
eg
recommend
numbers
hundred
overs
index
beyond
##load
note
chairman
built
cris
jump
grant
hearing
ps
iran
maybe
wil
ice
##iction
conversation
##aming
41
##ider
injuries
natural
influ
electric
din
##ification
wide
fix
reached
nas
und
##ese
##inated
##iance
sound
resol
obama
described
##inks
simply
cars
gone
##light
eag
##elling
ability
words
38
##oti
criminal
levels
penal
virginia
projects
##ris
pers
jackson
premier
construction
##enty
regional
##izing
plus
born
##ires
count
behav
williams
alb
feet
southern
save
yes
traffic
fort
po
trib
door
schedul
##ga
##time
americans
offers
##overs
disapp
operations
##hi
storm
pakistan
witness
tel
vice
kar
homes
vegas
letter
opportunities
ryan
##gers
fat
danger
minute
49
fox
der
girls
##ction
required
heavy
speaking
talking
professional
##ado
amazon
northern
##night
##ze
character
frank
acad
##20
towards
george
thanks
demon
owners
##iet
baseball
africa
cat
sometimes
##ems
##une
##anced
korean
analysts
vehicles
valley
##oint
carr
##he
##leg
crowd
lang
brief
tenn
##essed
propos
lt
exact
brok
itself
subst
##icip
guys
avoid
##while
44
basis
##com
cab
48
##ews
funding
##chester
od
mos
ess
leaving
##astic
flow
jose
finished
playoff
princ
profit
hotel
battle
planning
academ
thomas
winner
##iring
##airs
attend
cool
##emb
##arily
##unt
ny
##orter
claimed
flag
louis
brother
guy
##itz
launched
##eline
spokesman
obv
funds
photos
bost
display
initi
commerc
suspect
spir
unit
steve
obvious
highest
meth
radio
##itation
particularly
oly
leadership
nav
##acts
science
##coming
##apped
calling
slight
majority
ministry
islam
##eat
poor
197
perm
##ring
score
39
options
couldn
##oes
surr
agreed
lic
lu
##lim
die
300
allegations
individual
motor
refl
resources
##agram
scient
olymp
internet
parl
eye
##ocked
tonight
##eed
kept
42
border
shut
tech
francis
jim
trail
##ibly
##uses
ram
##eated
enforcement
rally
##estic
train
youth
contest
##lined
stad
floor
##igan
impress
opin
tool
provides
style
boston
foundation
noted
filed
commercial
mention
britain
independent
##ario
sources
activities
exchange
##ala
instagram
spending
miles
complain
considered
negoti
stars
choice
figure
##ocket
##ette
##ander
commit
opposition
caused
replac
telev
##imb
patr
spoke
chann
wish
mont
hack
##hen
parts
##ters
insurance
52
send
sar
web
##using
##tim
illeg
basketball
application
seeking
passed
emb
stadium
changed
offered
trading
65
crisis
adj
document
resc
restr
owner
earnings
supply
boost
##ef
jon
consult
##going
bid
sust
helping
org
scheduled
plant
yards
43
##kin
##vent
meanwhile
##eller
served
drink
parliam
51
##aries
decades
##phone
eth
drivers
reading
seeing
fifth
struct
path
kid
organiz
mayor
toward
fish
talent
winter
politics
atl
joined
wat
vac
tickets
crew
appeal
army
offering
parliament
cooper
citizens
designed
primary
mexico
forced
##egr
##za
andrew
chem
##cription
debt
gather
certainly
memor
subm
dark
upon
restaurant
teen
asia
democrats
holding
breaking
identified
disease
minor
speech
##ani
culture
fal
burn
table
communities
germany
##oles
##mas
2011
square
##wide
location
demonstr
ros
deputy
##oving
resident
nba
presidential
cold
defend
doz
beginning
innov
fine
champion
sad
perh
##iles
mary
perhaps
##ously
##lor
##set
records
passeng
fully
epis
##oe
emot
prec
##ancy
##rop
jul
##hl
anth
weight
heat
appar
##uals
uns
wait
martin
temper
pad
planned
##ero
##makers
infr
implement
transfer
bomb
##hol
mir
raise
hou
cookies
drugs
alone
advant
46
protection
integr
haven
lay
##omp
fash
benefits
fan
devices
housing
sheriff
##lywood
beg
boys
##ici
##inary
stocks
##ola
drop
feed
standard
##owing
successful
nick
cy
complex
attract
kel
correct
##lines
##iled
##pool
parties
pun
##oval
##oom
reality
paper
degree
##entially
answer
pip
status
feature
sud
##ustr
serve
hundreds
99
##ili
##iful
comfort
eventually
ariz
47
modern
rod
operating
version
fle
reporters
equip
spread
##sen
voice
reserved
segment
attacks
survey
asking
lee
tow
providing
strik
republicans
penn
african
rising
##men
believed
mental
weapons
sites
##edy
##abor
vs
jail
experts
debut
benefit
fashion
purp
simple
returned
##ledge
traditional
sym
##inger
joe
##icks
programs
decisions
banks
killing
coal
broadcast
guest
domestic
earth
golf
ones
exam
era
wouldn
haw
fired
manchester
session
word
supreme
relig
##elled
written
##ez
##amb
television
researchers
activity
aren
adop
technolog
resign
critical
except
professor
richard
royal
paris
corner
##wr
caught
surg
mission
labor
proposed
strategy
54
ped
tack
##ania
guil
afford
piece
elections
achieve
movement
corporation
nature
female
bell
inbox
wonder
##ucky
places
determin
showing
bench
##kins
christmas
strike
authority
losing
liver
##tress
##zz
91
##ansas
err
facing
beaut
##town
detail
physical
section
ren
tay
plays
explained
install
keeping
##ifying
divers
screen
learning
asp
gives
spl
equipment
57
damage
feeling
##oma
categ
ded
syria
active
rang
##itely
shop
hor
fighting
challenges
hair
airport
linked
population
owned
freed
thinking
mun
##ructure
ty
##veland
##bit
putting
spend
writing
starts
consumer
option
peter
##esville
##acher
infrast
sleep
jr
##ta
rail
##works
cleveland
entertain
steel
subject
##oul
##sequ
assemb
committed
arrived
items
missed
53
reform
##aud
fuel
mist
nov
##erate
greater
core
196
##house
##cing
##uter
ven
langu
responsible
located
golden
cere
abuse
load
scen
yester
##alid
barr
##ption
pacific
healthy
##iest
reportedly
nations
carolina
prince
approved
consist
caption
##ounded
##ucks
scot
guilty
imag
reasons
ash
origin
##well
pu
code
gm
daniel
row
collect
yesterday
finance
sea
discl
theat
##gl
customer
dollar
device
##unte
trou
beautiful
houston
joint
##eman
dub
##aded
marketing
jord
sides
pin
sav
placed
videos
volunte
dism
##ctions
update
kr
quarterback
##iami
##essions
operation
2010
##mon
surf
completely
bob
##adel
dropped
os
subscribing
cry
zone
hopes
appears
album
usa
highly
meant
massive
believes
method
rule
ohio
welcome
actions
dip
flood
responsibility
nigeria
bul
dar
64
56
gal
parent
infrastructure
holiday
individuals
bol
policies
seat
suffered
focused
##aine
##acity
candidate
altern
industrial
gov
flight
ken
reduce
camera
advantage
sort
gh
advoc
proud
brook
##ground
minim
unique
glass
neighbor
prosp
memo
kevin
absol
##roy
exactly
developed
whe
##iced
ltd
hits
ii
nice
awards
notice
actor
measures
stuff
confidence
domin
facility
ow
##oster
wid
seed
##ushing
estate
meaning
##etic
expert
effective
dun
miami
knows
58
newsp
du
selling
##ruption
59
micr
arizona
##agn
defence
##ada
##asts
ire
##athan
mand
editing
corp
penalty
muse
charlottesville
gain
shel
favour
purs
##irt
chap
spons
accident
cnn
usually
##apt
##outh
£1
incred
affected
##cel
##isation
ly
agent
##ano
standing
appre
normal
##50
72
##ersey
##instein
software
kh
bridge
purchase
definitely
warr
jer
watching
##orrow
##ev
gallery
lose
90s
institute
##adelph
tro
##aj
climate
tm
exerc
invalid
##mine
philadelph
##don
yield
braz
skills
##fri
##rid
allegedly
##anda
truck
partnership
australian
solutions
##dy
philadelphia
scoring
shots
occurr
myself
fit
abc
lines
rene
cru
admitted
##oz
##gu
michigan
wearing
66
60s
az
clearly
existing
explos
pil
tight
##ointed
turkey
necessary
hasn
##ka
arab
hind
##eration
difference
photograph
jordan
finding
eastern
assets
mort
channel
statements
measure
guid
assistant
##aves
recall
pit
rand
spirit
400
documents
narr
2019
shown
solid
loved
user
actress
concerned
warning
ongoing
estimated
francisco
assess
patri
defensive
##care
ron
immigration
##30
jam
squad
museum
object
occas
environmental
responded
exhib
facilities
brain
##iar
capacity
factors
##ych
applications
##ita
agree
freedom
profile
suit
twice
studies
managed
select
amazing
denied
josh
english
generation
boss
##inals
voters
creating
##tery
bottom
excited
dream
kil
vent
##icated
village
##inn
accounts
##mark
figures
completed
ec
surgery
##fc
seasons
##sea
struck
##vant
##asc
##ibution
##burg
alab
cbs
proceed
broke
##ivity
mail
christian
lady
stated
southeast
waiting
##nel
editor
##ador
establish
##ula
controvers
manufacturing
master
ign
decade
oak
##rey
audience
lawmakers
century
older
entertainment
ireland
##erve
##hs
worst
##tch
bringing
doctor
mueller
download
coff
retire
supporters
walking
columb
50s
dollars
setting
stopped
apply
confident
fellow
alco
##dt
equal
taylor
61
batt
luc
brad
singer
ell
##roit
manufactur
##ront
dangerous
warm
faces
views
bon
hate
initial
prepared
##bor
corporate
collection
eyes
##iny
##wise
sac
wins
obviously
agencies
##ini
testing
##gar
##ictions
sister
##uke
ruling
migr
names
seconds
liverpool
solution
signs
moore
alcohol
##mony
##cer
##mond
regarding
alabama
limit
##ulated
helps
##pped
expressed
##ounding
dad
upcoming
willing
eat
span
changing
learned
earned
dress
interesting
sor
##more
##har
trend
amid
episode
detroit
stake
##ube
arts
gian
produced
truth
collabor
##osure
inch
investigators
##eme
victor
##ycle
muslim
electron
pool
##tered
plenty
emp
80s
yourself
sky
##ansion
tweeted
warned
candidates
##atively
##outs
mah
##friend
davis
##iment
powerful
feels
aware
04
brazil
steps
knowledge
blog
illegal
separate
fant
##icians
jersey
gradu
##oman
##iling
carl
adjust
armed
carried
eric
skin
interested
divid
##put
##pts
onto
advance
##tained
grab
01
connection
pray
##ois
balance
##izes
##eness
favorite
hat
allows
ordered
whate
loan
happens
receiving
rough
whatever
offensive
##ym
stretch
weinstein
cath
horr
rush
competitive
77
##ological
computer
##fe
declined
##ship
captain
edge
produce
aid
##bon
##aces
pulled
announcement
##ae
contain
ring
memorial
lawyer
##gs
hers
eagles
##ios
##bridge
##onents
artist
extremely
language
millions
legislation
consumers
76
rum
appl
jew
animal
##ali
presented
67
developing
appreci
controll
campus
avenue
bright
bang
spect
##enses
psych
hurt
dur
assembly
contribut
##any
organizations
allowing
writer
recorded
capit
chemical
stan
italy
male
recru
##burgh
85
##bury
##wa
##omes
##anne
##win
repeated
##illed
technologies
seemed
buying
lock
suppl
71
dut
standards
##board
##antic
marc
covered
stores
choose
rub
62
lov
##riate
considering
affect
chel
74
bod
2008
liber
lawsuit
kenn
notes
province
prefer
cub
appearance
##uge
clients
santa
resist
affairs
transform
sessions
labour
68
paying
adam
suggested
junior
##utional
honor
mountain
faced
matth
frequ
teachers
anticip
hollywood
remind
bail
##ghan
conservative
##aked
##fol
opinion
cham
everybody
saud
remaining
lin
##izz
##arks
exclus
founder
route
fis
prep
enh
panel
drag
##holders
##riage
doctors
##iju
##know
driven
##arters
##icious
involving
famous
##bl
franch
kent
larger
switch
confl
pictures
books
##ils
ratings
##olic
forest
cow
##eg
##ien
silver
liter
alongside
ship
kl
##mates
scale
delivery
independence
##ocol
counsel
newspaper
acknow
##iana
tag
presence
destroy
georg
renew
pregn
understanding
##ockey
flynn
##market
happening
excell
journey
advice
visitors
##ati
classic
##arant
innings
##umn
fields
acting
##ears
telling
garden
wear
wheel
##ancing
##itar
privacy
direction
princip
2009
task
lew
##oola
secure
highway
bigger
##look
brex
picked
##gb
neighborhood
risks
prize
sitting
failure
##ijuana
whom
parking
dipl
cos
##ours
cancel
circum
##icide
dall
##ipping
rescue
listen
cav
##ella
roads
agric
surprise
69
##ura
treas
serving
condem
hurr
advanced
##encing
ak
taboola
##onic
##ho
##bing
treated
delivered
ride
stephen
rog
pace
tru
libr
##onym
established
highlight
healthcare
returns
easily
bird
brew
##awn
patient
dance
streets
commitment
faith
justin
##woman
##ortion
##ato
optim
occurred
ontario
bure
delay
margin
miller
##utely
transpar
agricult
##imin
cabin
none
inning
73
variety
hoping
dismiss
guarant
##erties
stick
ultim
elected
ecl
grew
rej
##craft
##others
95
##olution
marijuana
remained
sanctions
deaths
fer
##dom
sustain
animals
tun
ticket
supported
ira
celebrate
##icient
##eas
##aced
communications
##person
combined
tap
doubt
nut
positions
technical
brexit
midnight
materials
broken
shock
coord
confirm
behavior
swim
##agues
lived
##uj
##acks
brian
uber
downtown
closer
tells
refuge
sample
frame
ray
##istics
removed
##loy
##ower
hell
##antly
stress
schedule
ho
hang
expectations
delhi
conducted
approxim
matches
vision
unp
industries
finals
moon
entered
proposal
bought
programme
dallas
yell
scotland
clinton
##ko
dogs
recovery
63
posts
corruption
##ican
##bre
kelly
taxes
introduced
##quir
diagn
##hire
snap
##onom
unfortun
emer
oce
sid
harass
ceremony
600
##10
pharm
conflict
84
wire
influence
print
##apol
approximately
virt
bann
astr
wake
##unk
naz
##ua
initially
800
units
##ables
##awa
discovered
sixth
contributed
mentioned
##flix
prosecutors
tests
adults
##itors
colorado
sought
##atured
determined
wing
sweet
##head
jay
jason
wer
identify
solar
lane
religious
commissioner
length
accur
##itude
seattle
coffee
approp
swift
effects
dyn
islamic
enable
iv
experienced
tast
saudi
ford
##sa
alt
##icket
magaz
academy
apolog
netflix
crown
##standing
bear
lind
bath
listed
##ulate
arena
expansion
dod
agents
ultimately
circumst
##sp
tra
hitting
diplom
absolutely
chain
native
farmers
yard
termin
kansas
ox
theatre
uses
joy
ble
familiar
##oses
sharing
shortly
tend
teacher
concert
trends
negative
bbc
breat
closing
reserve
greg
jac
##reek
herself
fel
write
frustr
minnes
larg
austin
##inson
##oms
prompt
purpose
tmr
machine
premium
smaller
##lah
beij
attended
##ighter
##abilities
nearby
sharp
weekly
150
bern
dinner
beijing
supporting
flat
##igg
aggress
ideas
hen
##hab
shif
surve
anthony
ml
signing
potentially
chelsea
regions
decide
values
rapid
78
scal
gross
##urning
improved
fraud
defeat
films
##iding
falling
friendly
throw
spark
compr
conclud
bor
deals
investigating
harry
zeal
featured
truly
pra
deploy
hockey
younger
approval
giant
minnesota
feat
types
meetings
calc
turning
locations
tools
##iat
iraq
obser
occup
worse
supposed
ga
fol
employee
##elle
inflation
publicly
maxim
debate
transportation
proced
weak
##oned
married
arms
barb
##usion
moments
##dp
goods
giants
jess
largely
declared
rein
veteran
88
determine
wedding
false
missile
remove
rare
therefore
originally
max
##actions
##ashed
##erous
buff
easier
honest
metro
rug
##auk
tens
raw
clark
mol
tied
##iy
relevant
command
laugh
##issions
voted
##ooth
##illing
quot
##sey
outd
##lad
possession
02
##de
franchise
86
compar
basic
lad
##porary
wine
map
##ties
aircraft
bills
na
summit
py
volume
##resp
seriously
slightly
moves
marriage
rural
soccer
05
##ih
##real
##aham
armen
##ented
drama
exercise
sudden
newslet
strategic
properties
actual
mut
##rett
circumstances
##icing
##place
ranked
ko
heading
jury
enterpr
##ertain
palest
tenness
branch
##isted
albert
portfol
cuts
medicine
urged
icon
kitch
till
inspired
atlanta
vul
nic
##lands
southwest
senator
artists
georgia
unless
syrian
soph
withdr
equity
anton
##akh
upgr
gon
spain
ip
mosc
otherwise
kat
chances
##owed
firef
jur
##enda
identity
reporter
crimes
flu
firms
songs
threats
bron
owns
scheme
scientists
italian
profession
dram
hills
##azz
mp
earn
fake
##iation
tony
##ias
arsen
anonym
talked
returning
mile
apparently
brings
registered
clar
walked
retired
##rees
08
fitch
assum
zero
##lig
math
hay
immediate
carrying
warrant
models
marsh
zealand
97
touchdown
custody
lux
leads
stands
filled
##ivals
appoint
moscow
skip
sacr
congressional
putin
ross
beauty
extended
06
##ilton
currency
cards
rick
motion
##ogan
charity
##cy
likes
brands
yout
gop
eld
belong
bes
stor
violent
##ucing
prove
expensive
##erce
directed
##illy
joseph
internal
regulations
fab
lit
gang
evac
lots
2007
stun
tower
diam
tomorrow
##estyle
crack
creative
pounds
japanese
library
dividend
terrorism
ott
handed
refused
structure
##icts
stone
charles
acquis
jong
maintain
ambass
##aph
##ius
disney
duty
asset
producer
##rd
backed
relative
perman
rival
##apore
factor
historic
abd
harm
continuing
om
morgan
discussion
scand
involve
passengers
lob
##ighth
urban
warri
ends
adds
relief
musical
##alf
##ulf
82
pap
##aukee
unable
##taining
##enders
passion
shopping
headed
percentage
##ington
##greg
singapore
ye
payment
diego
incor
nbc
lewis
replace
stab
birthday
numerous
shape
merc
##40
democrat
##season
79
##ipse
tree
eval
fees
denver
drew
##ck
manage
engineering
##isf
##agon
ending
protesters
tie
##lights
territ
practices
##mo
wilson
##waukee
uncertain
ties
manufacturers
grade
entry
worry
expects
attempted
raising
racing
suspended
##elines
element
connected
patriots
investments
liberal
kir
##fit
analyt
adviser
wealth
pod
buildings
warriors
weigh
##otten
waste
tennessee
83
initiative
##otted
veterans
ingr
eclipse
##areness
##achel
mech
busy
transition
fisc
##iable
magazine
northwest
##ompl
embr
va
apartment
passing
##daq
##iber
milwaukee
securities
multi
kitchen
2000
##igned
awareness
rook
macron
##coin
interests
sevent
speaker
employment
representative
tan
pushed
dynam
queen
##fall
phase
patrick
amend
nasdaq
youtube
exciting
irish
utah
reduced
pointed
olympic
bound
assistance
targets
##gen
beer
thumb
possibility
specifically
consequ
lag
handle
visited
thread
alternative
lie
bh
stol
ocean
lawyers
matters
minimum
ba
stood
discussed
comfortable
bj
eating
wars
bitcoin
emph
informed
holds
81
offense
2020
##iffs
40s
increasingly
87
indeed
winners
cultural
typically
pitts
essential
studio
nin
util
##aling
92
scor
da
liqu
guests
##iser
sentence
recip
07
watched
ruled
shift
participants
payments
holdings
motiv
##lusion
##ophy
##osing
function
##apolis
comedy
generally
messages
commerce
quiet
consecut
instr
swed
split
suffering
emotional
gift
auto
shr
##amm
retirement
nash
##iqu
instruct
ward
wrest
alert
orange
volat
portfolio
jav
arsenal
syn
illin
pocket
reflect
forget
seats
sir
##ns
arrang
impressive
##oft
requires
constitution
trouble
counts
##enez
93
loans
##atically
mechan
cruc
##uations
consecutive
worldwide
spokesperson
targeted
sick
aver
boat
weren
plane
##ading
becomes
tackle
therap
playoffs
##icial
dedicated
ukr
complic
##away
##roid
250
##pping
monit
##oney
category
institutions
greatest
heads
##inations
salt
##onent
reven
losses
singh
resolution
##esa
requirements
decre
acknowled
fiscal
##acters
##ints
##60
characters
##gry
##11
cambridge
dry
bureau
wisc
dozens
joining
lunch
##ality
pump
client
severe
imagine
ment
mitch
##wan
vulner
##weight
oklah
##eted
illinois
##ova
##lying
iphone
alive
storage
movies
landsc
##otic
raj
##aze
lam
misc
semi
athletes
##oking
leaves
registr
forg
03
midfield
##tm
representatives
persp
plastic
##itals
ambassador
kur
hero
possibly
##lo
monthly
causing
performing
capitol
struggling
afghan
incredible
##uted
turkish
sees
oklahoma
begins
jenn
lyn
##odes
89
##reh
palestin
memory
affordable
##isa
votes
gender
rebounds
##va
cabinet
thus
discr
colleagues
adult
background
##aron
subsid
neither
protests
footage
selected
orders
nhl
madrid
##aks
suggests
complaint
lions
importance
stolen
household
elig
criticism
gay
guide
##iders
governments
rot
bodies
coc
deadline
sets
khan
mrs
tall
##onsin
spanish
##abled
##ulations
edition
aimed
hole
##ries
performed
coaches
wisconsin
ru
cells
fee
2006
##pe
outstanding
plants
wales
knee
harassment
featuring
harris
pipeline
falls
##abe
accus
coalition
diamond
legend
dj
rent
spokeswoman
pieces
promote
sarah
prepare
afp
excellent
surface
##ypt
managing
soldiers
##equ
bloom
rocket
decline
surrounding
updated
tips
gap
sorry
clash
visiting
tes
andre
dish
##utical
luck
##azy
turns
explain
adopt
relatively
compete
transparency
hey
195
appointed
convicted
pittsburgh
android
##erts
##uma
maria
threatened
##oen
archit
nar
rugby
scar
##ibute
supremac
assists
resort
##uts
##boy
concept
##mad
##road
package
enjoyed
##inent
chick
annivers
aged
##lets
loy
communication
harv
unkn
compens
viewers
##pa
cutting
anc
##aped
asian
magn
##research
distribution
worried
nca
grown
##anna
flo
threatening
pilot
94
##onduct
traded
behavi
estimates
clubs
seventh
temperatures
##val
significantly
##born
banking
enr
historical
selection
pushing
sentenced
license
reply
granted
emphas
windows
##iences
mode
waters
highlights
diss
dozen
fc
lifestyle
moham
headqu
##empts
drove
##ogue
walker
intent
controlled
hart
revers
##news
experiences
gear
suicide
negotiations
newly
deadly
newsletter
##cher
##eland
philipp
findings
##ll
##hr
rookie
hong
craft
sr
doors
crore
dial
sean
metal
##agement
jen
attempts
politicians
appropriate
inquir
##ensus
vanc
northeast
dealing
nyse
unfortunately
suspected
##illa
guess
hopefully
fundament
unknown
bush
innovation
intended
apps
voting
anniversary
##dd
compreh
battery
ta
increases
atm
smoke
passenger
nurs
detect
##apping
##ouver
closely
fisher
##vis
react
founded
ups
houses
brothers
bom
classes
aside
personnel
behalf
allen
##celona
##15
rivers
##illance
interst
##word
gains
nobody
##och
lineup
hospitals
##usal
ads
surveillance
ts
etc
vancouver
##fast
evans
ali
satisf
catholic
##edge
publish
ka
oreg
##etr
barcelona
cannab
iron
punch
venez
embed
withdraw
##stream
oregon
cart
occasion
##rian
sounds
journalists
lev
micros
##ician
cha
knowing
belief
##stone
venezuel
spin
distance
nik
mine
##life
ncaa
argued
struggle
pul
jonathan
stronger
acts
##pro
tip
llc
##char
faster
stream
tamp
##alo
nam
##era
##onn
##ulty
inspect
##tv
mas
overnight
sugar
emerging
##zy
##ikes
##ched
surprising
hud
flying
##esy
##icane
anderson
##wart
worker
conte
error
hurricane
egypt
bike
lights
agenda
##inity
pleas
carbon
horse
aaron
lucky
surprised
promise
##water
##icop
advertising
speaks
probe
fatal
accepted
widely
cloth
pier
municip
##ux
celebration
rig
encourage
##donald
forum
alliance
engaged
##aire
##ylv
barrel
mall
96
advent
restaurants
cricket
thoughts
##shire
sending
09
follows
wave
provinc
pattern
2005
##aceutical
plate
depend
gym
accompl
harvey
thumbn
hunt
coordin
marks
critics
##oked
priority
repeatedly
thinks
detailed
dave
upset
permanent
firefight
##wich
promotion
incidents
readers
unlik
yellow
announce
represents
kong
israeli
troops
officially
guns
directors
aer
##haw
substant
depth
residential
centers
vital
##rig
##opher
roughly
improving
##eds
hosted
facts
ark
##aza
stations
##osph
##can
investor
funeral
som
##owa
##lyn
##ining
##pton
provincial
planet
passes
unlikely
reaching
bruce
##ika
predict
##ylvania
roof
marine
##pass
clock
##ression
fred
degrees
kyle
crude
penns
##ora
promised
dol
nich
##ibr
indiana
98
crucial
gained
gary
flex
chees
wounded
osc
##ila
modi
crews
boot
reaction
courts
pc
participate
exclusive
navy
pence
eighth
mixed
weapon
patch
194
controversial
challenging
attacked
shouldn
devast
##entine
outlook
imposs
awarded
anywhere
electronic
elev
hindi
slam
totally
cameras
prohib
les
##ouri
interact
woods
blast
ker
improvement
investigate
export
racist
syd
malays
isol
##acle
recommendations
chamber
colon
effici
schol
laur
scores
##aly
##oration
##abeth
consp
column
scandal
##exp
knock
foods
breach
##17
affili
sequ
capable
brady
##iters
opio
##oral
##aled
mining
pennsylvania
courtesy
yank
##bal
opponents
drinking
electricity
chronic
defic
phoen
##nam
performances
cin
wwe
hosts
ank
##amples
700
cu
##dale
remark
combination
wonderful
##idency
athletic
territory
antonio
voc
##osis
somebody
chat
victoria
##bel
pleaded
failing
helicop
bars
chip
globe
remarks
depos
triple
powers
ages
confront
phoenix
complaints
##ifer
button
stable
shirt
drawn
volunteers
##berts
euro
##pson
provider
hub
bjp
shooter
vend
phill
fewer
symb
##iot
grass
##12
temperature
##uated
cyber
columbia
secondary
regime
clinical
beating
ku
conven
forms
kentucky
steven
threw
blues
protected
chase
scenes
cul
showc
hyp
##kel
claiming
citizen
outs
eliz
discip
##worth
##ss
bedroom
##ounced
perspective
ministers
diet
##key
judges
illness
roster
impossible
relationships
democracy
cents
matthew
instance
links
##mate
replaced
compos
olympics
coup
regularly
prospect
extensive
hamilton
##itage
monitoring
covering
struggled
revolution
regulatory
pound
entering
##whel
chocol
##erto
deser
##inct
contracts
##emen
missouri
vast
repair
accel
##oln
sydney
##18
thompson
fame
registration
trick
christopher
settlement
calm
redistr
emerged
ech
##rison
nashville
##force
invited
linc
##ilit
allies
mainly
terrorist
maximum
suc
##bn
girlfriend
##yang
veget
defender
##mes
yu
wash
thumbnails
unlike
haz
providers
##ray
unus
gathered
##fire
nev
deeply
leon
violation
sympt
##star
##inho
bru
accomp
##ker
representing
ottawa
##ingly
ave
pharmaceutical
acquisition
suspects
cannabis
iowa
ourselves
opens
gab
tourism
##ete
flav
basically
##pay
##umin
cream
##ji
##elson
##bell
musc
streak
##ela
volatility
recommended
rav
agriculture
ist
electr
rejected
novel
##ography
charlotte
sant
steph
dre
firefighters
networks
reput
rif
outr
blow
##backs
defending
##uable
##beat
transl
##owski
discussions
explore
assessment
bears
landscape
ingred
exit
causes
submitted
momentum
crazy
mortg
chef
operate
##ounting
stepped
offices
2004
lav
##othing
abb
##aska
strip
hired
tank
dim
kilomet
elizabeth
homeless
professionals
##ommod
##phones
##anka
heavily
explains
abortion
##ja
thor
mum
welcom
citing
rewr
targeting
tri
transaction
##leans
coaching
##ria
anticipated
filing
keen
desper
tig
escape
##uous
delight
jets
medium
##iev
neck
accommod
lincoln
info
loyal
cooperation
entirely
disord
operator
orleans
roberts
valued
entre
##gary
shoulder
fantastic
flash
obtained
producers
captured
guidance
usual
teenag
principal
comprehensive
disaster
encoun
anx
rehab
jumped
excess
ramp
##iano
revenues
##amin
interior
sweep
paint
teaching
atr
##prene
parks
firing
trees
celebrity
##perform
ease
hide
andy
##otive
appearances
saving
lan
wage
rounds
fixed
ai
purchased
description
menu
dating
strategies
shall
phones
racism
entreprene
surge
##ders
mirr
yeah
##okes
funded
reward
carter
architect
beng
concent
organis
meat
usd
##itzer
sab
chapter
jacob
kingdom
##iveness
##iner
heritage
russell
prosecutor
euros
buck
treasury
theater
##mingham
gate
explosion
##walk
vulnerable
##fa
desire
##osen
plain
streaming
effectively
cycle
pictured
desk
kal
headquarters
##lers
120
bump
tact
outdoor
colomb
##rell
elder
birmingham
neighbour
luxury
##irty
gunman
##ales
##anny
concentr
prin
##imination
overwhel
unclear
##ht
jar
permission
##uits
peak
serves
##ologist
£2
keeps
##ports
galax
lies
##olit
subur
lord
ronald
aband
championships
futures
##eep
soul
magic
prominent
saved
attach
tea
misconduct
consumption
shareholders
cole
proved
tested
patrol
label
wy
easter
mouth
staying
aggressive
exposed
##acc
blame
proof
pride
fundra
pleased
##ti
legacy
hid
##45
awa
dil
alexander
manner
simon
##isan
primarily
extreme
murr
tam
arabia
30s
##aka
loud
oblig
investigations
adams
consistent
letters
bonds
developments
mistake
##tra
puts
collected
atlantic
supports
##igen
wells
copy
respectively
rape
managers
tariffs
persons
oakland
sanders
##oves
combat
ay
chocolate
##met
applied
milk
opinions
clothes
sum
subsequ
automotive
tennis
fought
elsewhere
trained
behaviour
##intend
encouraged
savings
cra
kings
##abet
ratio
medal
cinem
todd
##uru
manh
strongly
eligible
fitness
venue
##uate
preparing
enterprise
##maker
stayed
montreal
twenty
airlines
roles
shad
immigrants
##nic
settle
queens
toy
cited
formed
mumb
nest
conversations
indicated
##unes
##cious
quant
espn
md
rely
enth
##ashing
lowest
recon
contacted
marked
amar
##oured
drawing
##tenance
executives
dw
versus
##ishing
recre
tx
fishing
fi
redistributed
academic
sustainable
graduate
dies
regulation
dust
grounds
dates
spoken
##etime
strange
101
##mann
##aug
regardless
padd
gif
troub
covers
maintenance
um
statue
invent
liquid
extension
spotted
rear
vin
crypt
reference
petition
rooms
##isters
##iti
neut
disappear
monitor
compensation
horn
lap
riding
forth
creek
amendment
deficit
gib
##kyo
shelter
brid
ot
##point
pedest
vig
banned
smartphone
succeed
opposed
witnesses
temporary
recognition
visits
dismissed
rab
tokyo
stuck
##eston
concluded
vik
recognize
puerto
rangers
grace
parade
elements
##iors
afghanistan
##una
nat
spots
referred
resulted
dear
fog
dat
tesla
expenses
##car
##che
intercept
##osphere
acquired
indones
##ourne
crow
symptoms
roseanne
polls
unve
outcome
advisory
jere
##tle
clothing
species
##icul
##ovic
restrictions
pink
stanley
stem
autonom
bry
chicken
fla
##ups
sed
throwing
arrival
##timore
sight
hosting
mit
brill
empt
expanded
gor
theft
replacement
blind
jewish
fears
##fr
baker
elimin
##umes
organisation
hook
whats
shah
plot
whit
limits
chest
cher
noon
solo
theme
underst
precip
chose
##enz
poly
estimate
intention
##endum
##uild
generated
palace
nomine
congr
municipal
circuit
elite
##riers
benn
ufc
harder
employers
conce
tigers
##anged
mississ
##iture
valid
scottish
rice
kate
##oppers
##iration
belg
ib
##jects
finger
assume
surviv
2nd
grey
extend
collaboration
maker
hunting
consequences
eve
##die
##laim
angry
cardinals
graham
pregnant
blocked
htm
rah
fled
lift
absence
disrupt
henry
mack
enhance
subscription
emails
forever
hip
tiny
nevada
rivals
evol
rolling
##ture
properly
scientific
tai
teammates
relax
##po
represented
ky
engagement
##eing
portion
taste
consensus
expanding
gust
recovered
strict
##abad
baltimore
bree
legislature
fo
han
##etary
latin
##ifications
legislative
articles
##anth
inquiry
##aa
cheese
reducing
referendum
conver
##sl
mour
synd
resource
##een
races
##iere
##agr
gulf
investing
murray
holl
height
breast
deput
journalist
craig
interp
mumbai
residence
choices
favourite
damaged
valuable
scalise
donations
kath
refugees
retr
depending
convention
pdt
celebrating
repr
sectors
nur
recognized
creation
audio
ideal
recalled
reputation
##ira
tail
engage
##ogen
jimmy
robber
rams
exposure
headlines
realize
platforms
minority
ax
fallen
##gi
demands
##asy
climb
intens
argument
ambul
mn
districts
2003
overseas
##abwe
addressed
circle
bags
fireworks
formal
microsoft
suddenly
aven
banner
innovative
receiver
therapy
pel
answers
##sters
laid
zimb
traged
nasa
##rick
contem
trailer
##anton
volunteer
trem
dispute
illustr
##rete
##bul
buyers
buzz
trophy
supplies
##vi
recommendation
##uster
##enko
rewritten
clouds
zimbabwe
##hal
brows
escal
saint
periods
##bb
barack
necessarily
gord
dick
chosen
reduction
sin
prospects
sams
gray
##jo
destroyed
tensions
##rum
ninth
cord
nigerian
foster
alph
insider
sheet
smooth
portland
achieved
##thr
neur
##pg
interviews
root
personally
leaf
referring
clim
pension
##ennial
sweden
discovery
##itable
opener
html
factory
finds
armenia
conspir
flights
deleg
organized
dump
2002
1st
producing
jazz
toler
shoes
celebrated
deputies
valentine
cheap
resigned
casual
vess
pages
cafe
brandon
##istol
##aga
noticed
errors
madison
adopted
resistance
statistics
towns
sox
bart
requests
resignation
dean
ug
howard
unw
mitchell
toll
cock
yankees
powered
##ateful
projected
##ione
##eld
##ardo
inches
##utch
liberty
unusual
construct
rico
mood
pyong
##vp
broker
actors
innoc
##itarian
enthus
pover
associate
titles
tyler
cruz
tweets
context
hug
testim
keith
hawai
presentation
smile
literally
aims
exhibition
mini
islands
shan
telec
venture
jes
fu
arrive
stephens
pyongyang
attending
galaxy
##ippi
##eries
##oga
cave
constitutional
poverty
odds
fairly
##gy
##bound
##aya
activists
questioned
liv
##ipe
contribute
duke
fruit
prevention
nights
fulf
wolf
tries
wis
diversity
gam
dak
jet
rosen
indians
presidency
jennifer
wildlife
accompan
##19
meal
pent
unem
##hill
##aver
##asters
anybody
unn
##22
kit
tracks
maryland
string
senators
dramatic
symbol
locked
walks
segments
searching
pending
machines
tum
terry
##raid
stunning
unemploy
virtual
midfielder
##acted
##play
exceed
##kinson
##cia
springs
##eb
accord
gil
taxpay
ingredients
shifting
barbara
cous
appointment
##front
samsung
atmosphere
##ographer
##phy
recruit
nathan
mcm
##bourne
refere
##agu
legit
hugh
sustained
constant
##ecks
wright
elementary
si
mortgage
##rence
swing
enem
lod
insisted
stages
acknowledged
mississippi
situations
2001
louisiana
ian
thrown
successfully
venezuela
noting
resulting
folks
##olas
useful
hillary
tu
spaces
palestinian
##onda
##gate
salary
efficient
##irates
indication
robinson
kennedy
funny
picks
larry
blocks
contained
incredibly
urg
topic
glad
narrow
starter
advised
dal
nelson
marath
cinc
scholars
luke
promises
##igar
profits
attorneys
##ses
adapt
afraid
breakfast
nationwide
belt
##acked
##ternal
##licit
##ycling
frequently
educational
##iang
signal
punish
furn
iconic
auction
extent
discount
##agan
##80
##mouth
hend
##imp
orland
gotten
inaug
capture
carp
reds
lon
overtime
whatsapp
unexp
linkedin
latter
rodrig
gill
indigen
pure
hire
ranking
runner
consol
hod
kiss
celt
cryst
overd
##aid
recording
congrat
expecting
explo
comprom
doug
rated
jeremy
hadn
torn
aj
spo
##imer
distur
welcomed
thin
tob
cot
ult
buffalo
proven
orch
worksh
improvements
prompted
writers
gent
hamp
federation
competing
provision
##respond
wag
disag
jake
verd
helicopter
##umar
pitcher
humans
gathering
brun
unif
bou
cp
correspond
airline
10th
##osa
racial
satell
memories
griff
loves
30pm
ultimate
catal
appreciate
divor
implementation
cum
hann
##eo
clay
developers
boyfriend
organic
argent
##ibilities
dow
bund
marvel
automatic
involvement
dc
opposite
##ls
##eph
ghana
fasc
brilliant
talented
serge
##arian
striker
nationals
##ni
resolve
ic
##approp
membership
viet
##olds
shaw
ownership
dancing
routine
counties
pear
ranging
##idays
comey
reun
constitu
output
moderate
unexpected
bish
observ
substance
##yer
writes
transm
tribute
boun
##war
posting
longtime
appe
suspension
##ixon
villa
cowboy
secured
striking
jessica
differences
packed
gamb
cad
ster
grateful
butter
##izon
colombia
loading
ukraine
skill
abr
amy
pursue
defeated
boxing
legs
jamie
merg
okay
flowers
dougl
prelim
edwards
chart
screening
mud
echo
lying
awes
essentially
shocked
##ardash
undert
campbell
impl
capabilities
transg
equival
##igation
##attan
traffick
disabled
wol
fastest
##how
##to
##jan
confed
ale
handling
reviews
endors
entit
##arth
requested
##etts
besides
tracking
kicked
##oning
193
km
gig
terrible
kam
nass
purposes
2022
mans
efficiency
##ello
focusing
##weather
sporting
migrants
exempt
processing
lor
sty
reasonable
concrete
##24
bathroom
lakers
warren
neutral
##burn
guidelines
exports
disappointed
tampa
brut
vacc
arkansas
indigenous
##lar
wayne
fundamental
rall
marg
substit
petro
delivering
genu
comed
columbus
paddock
tragedy
900
sanch
##innati
participation
ted
steady
normally
reserv
plea
orlando
rar
##bie
wise
stability
encouraging
disclosure
murphy
cleared
hoped
##inder
conclusion
cincinnati
spy
cohen
criticized
##iques
input
neo
redd
bust
visual
intense
##ateral
addressing
transgender
fleet
##icut
interv
finishing
picking
broader
diverse
##usalem
initiatives
##what
overt
jerusalem
decor
argue
retailers
awesome
taught
maintained
conspiracy
slowly
methods
ja
lem
##xic
publication
traveling
michelle
tas
welf
bun
incorpor
processes
progressive
buc
judg
uncertainty
supremacists
hearts
promoting
##andez
connecticut
javas
##berry
releases
pav
jean
sensitive
encounter
blamed
bullet
mirror
mexican
javascript
groc
precipitation
empty
password
accusations
ski
##castle
contrast
caval
##apse
responding
##mont
sponsored
taiwan
##ographic
bm
cable
customs
wick
opioid
kay
quoted
poison
lisa
suspicious
##ads
##achus
eb
xi
##emed
somewhat
typical
controversy
gut
categories
welfare
lgb
admission
hiring
##25
universal
##arms
ballot
switzer
container
childhood
sisters
cdt
coordinator
fighters
breaks
approached
hors
lawrence
traders
stall
egg
kinds
abroad
npr
reign
sexually
councill
freshman
hidden
facilit
landed
sole
installed
orient
makers
advers
sanchez
##izza
##ito
nutr
##eding
seized
realized
collins
objective
diseases
conservation
##achusetts
controls
massachusetts
superior
cm
kash
##di
##itis
yields
wet
caps
transit
condemn
quarterly
nomination
pricing
##inking
chiefs
alumin
alexand
nonpro
hunter
ridge
##vens
##ointing
amounts
##encer
constantly
clinic
survived
##kshire
##ded
insight
generate
##terest
licens
everywhere
privile
dodgers
activist
scenario
somewhere
detained
topics
dominated
##ogs
delayed
advocate
testimony
burning
personality
palm
rapidly
##zing
##atar
alan
goalk
introduction
procedures
appeals
wore
dece
colour
marathon
cn
denn
lifted
##here
##ista
submit
##leton
##ares
guarantee
accurate
cubs
protecting
pill
##sex
files
barn
ensuring
duo
gordon
dna
dining
##arch
##ladesh
bachel
bangladesh
loving
phen
manhattan
inapprop
illegally
participating
utility
##child
##erb
singing
##acing
110
brooklyn
drum
speculation
cd
incent
pas
nominated
pled
##ulating
goalkeep
spell
enjoying
robot
##lining
myst
jesus
marshall
rio
pregnancy
remote
qualified
diplomatic
douglas
##bow
kardash
begun
kap
##lr
##cs
caution
shout
apparent
ni
##aco
shir
underway
universities
suite
removal
knights
hike
##aware
compliance
promising
deport
mistakes
ambulance
spiritual
neil
fantasy
preliminary
##aws
seeks
noise
theory
##ece
alter
enroll
flames
settled
tribune
anymore
describe
##acon
##iah
addiction
suffer
martine
reads
exclud
tear
packaging
aspects
nazi
tears
##eria
lgbt
sons
chand
bold
prol
jane
peters
##uls
gonz
defined
demanding
duties
proposals
##gun
watson
craw
scroll
##35
departure
trigg
shell
contains
mck
alloc
electoral
discrimination
warner
coron
indonesia
##oop
consideration
##endous
specialist
suggesting
drinks
wides
understood
sg
sacrament
##16
autonomous
documentary
mi
##ujala
amarujala
tier
depression
hydr
dressed
commod
tent
indicate
##iro
guitar
tumb
bb
nad
##lan
screens
tone
oscar
##onia
midd
bub
##oyd
berlin
shops
observed
newcastle
predicted
##pread
turner
motorc
random
bachelor
opponent
erd
bats
herald
strikes
meets
viewed
mason
witnessed
contributions
advocates
teleph
emissions
##izer
cardi
institution
followers
##aughters
slid
penalties
rou
salv
honour
presents
diagnosed
attacking
dual
##hy
trillion
evil
argentina
institutional
berg
benchmark
##nie
habit
dreams
roger
charging
developer
##arrass
##elli
flooding
hood
##lessly
additionally
##ikon
##opez
praised
collective
##ype
embarrass
jerry
dor
aqu
grav
lip
unfair
##itial
anch
designer
anthem
gmail
pione
2023
fires
balls
rushed
pause
backs
rolled
interstitial
swimming
reforms
feelings
beef
nan
quarters
calgary
township
quit
crashed
##omen
bennett
martinez
##umph
adoption
perry
eggs
morris
##cott
destination
sponsors
missiles
ast
imposed
stewart
widespread
instant
anger
entrance
bever
cs
foul
cb
babies
isolated
radical
strengthen
adjusted
feedback
walls
##acco
protocol
##hari
fern
complicated
bin
wages
procedure
mcdonald
odd
bunch
disclosed
##media
maine
dialogue
gren
contribution
ranks
titled
trucks
longest
cf
beaten
pron
administrative
artific
barely
lopez
deserve
asks
20th
##ifies
##col
##gregor
hawaii
suv
singles
##lington
sparked
listening
##hand
##oa
lean
##enger
ranch
protein
wider
##itr
parker
malaysia
occur
assign
harrison
relie
rash
harvest
shadow
eikon
religion
outlets
brooks
bass
nationalist
##endra
##teen
seal
theresa
attempting
shore
signature
##uro
##13
aviation
campaigns
pulling
lifetime
pix
sacramento
travis
##unction
briefing
##wall
curt
danny
castle
survive
sib
militants
neighbors
integrated
susan
mourinho
whenever
imports
renov
attendance
bengal
##hu
overview
classroom
rbi
dropping
throws
penins
alberta
detention
##ivan
cape
##wal
##itious
bloomberg
ft
nhs
robbery
##iece
fighter
lobby
pizza
##oric
roman
nu
krist
vendors
##iott
##ucker
commander
casino
##omo
fool
lion
consistently
consent
insights
scrut
##essing
external
thick
affair
bil
unity
solve
operational
##brid
tradem
imper
viral
knife
availability
employed
iranian
##ication
fortun
melbourne
addresses
equivalent
reviewed
instrument
stressed
poland
universe
logo
##borough
##acies
experiment
divided
voices
offseason
anonymous
violations
daughters
thail
##xx
vlad
collapse
vet
landing
charlie
extraord
alban
techniques
components
crystal
reck
pinterest
switzerland
prosecution
##king
spic
##iary
thailand
inters
implemented
aub
hob
hotels
cowboys
##enham
anyway
robust
investigated
preferred
item
distribut
vacation
gram
peninsula
grid
##ahu
qualifying
attractive
comeback
collaps
intellect
##attered
trig
por
papers
twin
forecasts
anxiety
vary
ethnic
premiere
comparison
contributing
alf
elderly
dubai
lineback
journalism
cooking
dispatch
headline
##ei
shield
deeper
physically
mcgregor
erdogan
donation
iii
podcast
trips
##udeau
photographer
##rol
proceeds
isis
##ipper
wireless
cruise
perp
dict
timing
formula
##mir
##lings
##atherine
handful
raiders
conservatives
dolph
itv
##brook
consolid
competitors
booked
##ctional
##wick
##uting
4th
##ws
touchdowns
wrestling
##aro
agricultural
sciences
3d
nc
##ellor
summary
electronics
thorough
calend
meg
distinct
derby
merch
##club
substantial
checks
overwhelming
ry
##uez
rifle
embass
proceedings
gaming
disorder
backing
sits
##yard
unr
riders
departments
feder
outperform
steele
cavaliers
trag
dispos
unemployment
hr
agreements
broadway
unpre
trudeau
tourists
intervention
kirk
silence
kidn
loaded
decent
financing
isa
bryan
inher
interim
##asp
preced
##iller
##itens
##bron
##top
thomson
assigned
upgrade
smoking
##imir
inspiration
cameron
empire
cass
greitens
##mal
modest
humid
bradley
breath
whereas
carlos
richmond
knocked
rib
portug
creates
dy
boom
upload
terminal
url
gonna
##print
dakota
hello
mug
delays
preparation
revel
confirmation
##aping
relatives
corps
##ensively
bollywood
involves
carries
philippines
desert
narrative
certific
cigar
sophom
referee
brig
arrests
1999
adequ
workplace
reddit
pollution
kenya
shed
##uther
rebuild
micro
inacc
##cos
bottle
##gg
uncon
dynamic
##mart
##manuel
motors
explan
wanting
arguments
emotion
teenager
authors
automatically
ware
##bean
##ros
11th
mt
delta
franklin
obtain
shame
##list
courses
launching
scholarship
hans
sne
metrop
crossing
railway
##obe
consulting
defendant
liked
somehow
nonprofit
channels
overcome
spencer
viewing
invas
bent
q1
sri
resume
##bar
episodes
expertise
verdict
##mel
issu
maintaining
trains
zoo
garcia
expense
careful
tables
kardashian
stamp
guardian
goalkeeper
wre
reass
marl
survivors
operates
operators
regulators
cosby
incorrect
supervis
3rd
##omfort
##nell
datab
cooler
scope
everyday
replied
carefully
friendship
zach
runners
killer
indianapolis
rome
dealers
implic
seemingly
remarkable
plc
bread
rachel
190
persist
mick
##do
##oping
bald
wings
backl
perfectly
accomplish
##lie
##istry
##df
earning
yor
##icate
enorm
mars
boards
diesel
##bec
loose
grabbed
prayers
rex
##anted
analytica
permit
seniors
##lay
borrow
ucl
ng
holy
conviction
transactions
completion
judicial
postseason
holidays
highlighted
telephone
trials
##oat
130
toil
volunt
disappointing
artificial
borders
gusts
nerv
##part
globally
closure
generations
letting
travelling
rarely
fate
hatred
cheating
##ensions
equally
repeat
emmanuel
integrity
establishment
marcus
acres
##no
parish
gest
drives
felony
deployed
cats
innocent
tired
rc
dublin
bot
chuck
eagle
sponsor
forcing
hardware
elliott
nutrition
clip
costa
mountains
nato
##western
chaos
princess
pomp
visa
##keep
chemicals
##phis
##ige
demanded
subscribers
##23
##athy
gardens
safely
editorial
copper
exception
glasses
tort
reliable
kurd
coastal
thousand
bankrupt
carrier
##wear
lottery
cleaning
accessible
##oday
lucas
adventure
blaze
##pd
dh
trapped
##adi
impressed
plun
ankle
organisations
infect
epa
fault
##zer
superintend
##zo
timber
nag
acquire
lessons
##gow
reed
symp
##lis
condemned
attitude
rogers
announcing
pup
mull
##ippers
bacter
memphis
browser
##shot
reveals
peaceful
tobacco
joke
diabet
charter
dere
panthers
fold
saves
hanging
collision
muslims
celebrates
##yth
moral
challenged
sha
swiss
divorce
##pal
##olo
repeal
carib
toxic
chanc
placement
exhibit
##agh
merced
yah
##eli
mutual
manip
convin
introduce
unpreced
unprecedented
hodg
##agen
burden
desperate
##ussels
bapt
##ami
parliamentary
toys
matthews
insist
weird
911
vladimir
##ampton
lakh
jefferson
visible
conscious
stops
birds
##acular
reserves
##iley
##isd
rb
##new
interf
oliver
civilians
bak
mayweather
sophomore
##70
param
cycl
accum
sudan
belgium
##14
inmates
##tech
intim
bio
##orous
virus
describes
reflects
emma
barry
liberals
##mi
holes
contacts
treatments
##ahaw
defended
occasions
cater
drake
buhari
rd
structures
tremendous
beth
rip
prescription
donated
evan
##bank
harb
##aba
##90
180
##rians
calendar
##pan
##oria
##lev
diver
360
attached
unt
guaranteed
bone
benj
framework
connor
##haust
burgl
rental
##estone
gran
sod
##ima
phenomen
##grav
bc
infection
##van
storms
gb
anytime
20s
ss
##shine
rhet
survival
arc
suspic
qualify
##mun
surrounded
inspector
cryptoc
toss
settings
brow
monetary
engaging
21st
embassy
dug
##fs
centres
wimb
outrage
inaccur
##riel
grap
similarly
poet
explosive
exhaust
##olitan
examples
juan
invested
blake
12th
analytics
##aca
guards
##orious
whis
scan
vietnam
spray
tillerson
lynch
soil
##mund
##break
camps
diabetes
requirement
yuan
ally
meals
crop
credits
105
##shore
mps
wound
beck
angels
fy
##rets
medication
convinced
experiencing
##row
##anbul
chad
##ception
##holder
stance
garage
crossed
semif
istanbul
##alia
sterling
brent
naturally
##tering
billy
hern
1998
ronaldo
hs
nazis
##vere
sued
anonymity
deliber
ahmed
prad
ashley
connections
stir
annually
patt
bishop
##ylie
firearms
stakeholders
hacking
reiter
delighted
##rupted
discussing
dominant
dennis
superintendent
##ran
format
##stock
medica
##net
assured
bic
##oh
steam
spill
authent
bristol
touched
unders
lamb
##ledon
temple
cem
##kar
mandate
shocking
##oli
lagos
rodriguez
lighting
entrepreneurs
offence
##icester
faculty
cros
tang
drunk
rapper
vigil
gaz
twins
medicaid
vit
heather
bernard
stopping
reception
humanitarian
retailer
£3
laura
##etta
instructions
stap
wimbledon
manufacturer
dement
struggles
gmt
sunshine
functional
definition
fare
thai
philip
heights
inappropriate
nassar
muham
trop
quebec
cryptocurr
##angel
donate
##enna
actively
digit
popularity
focuses
classified
lung
##km
##acking
speakers
respective
1980s
##edia
minds
spectrum
grants
abused
teens
badly
emotions
acceler
movements
magistr
engineer
lebron
##angers
##emble
execution
criminals
vel
seoul
teeth
reject
sentencing
dash
routes
advisor
brussels
bout
stole
ucla
gabriel
triggered
au
mystery
lakes
##ikh
stepping
halft
engineers
pose
billions
extraordinary
leicester
interviewed
minne
##bu
workforce
containing
purchasing
brush
aspect
showcase
dolphins
steal
trafficking
hybrid
mainstream
interactive
contemporary
petrole
waves
urging
##jected
moreover
outfit
colors
vibr
convent
fried
silent
##ept
kumar
mate
pere
appearing
##azier
oldest
courage
refugee
mlb
##jar
shake
ordin
luis
dawn
##bits
locally
obstr
##vo
inev
##uded
##aser
halftime
cake
tale
jurisd
answered
default
spotlight
assaulted
anna
orchest
kashmir
##icon
declar
cz
eager
txz
kw
authorized
minneapolis
slide
operated
##mid
trim
reverse
lig
##rin
experim
pitched
##issa
fda
qatar
chan
##omed
fing
##obi
philos
hes
##pc
cox
studying
##nut
##owned
##gal
aston
rushing
##inge
painting
nervous
1990s
batting
##ierra
organised
tott
butler
epic
shower
script
spectacular
saints
fabric
benjamin
luk
sull
queensland
starring
##kh
emily
ancient
##ache
backup
##oto
accounting
devastating
lets
nate
embrace
petroleum
alarm
edmon
murd
revised
arrives
pipe
##aki
assert
browns
cotton
priced
carson
roots
##ulu
transformation
rises
johnny
linebacker
ric
underground
concuss
checked
pupp
reyn
designs
athlete
##chi
inspection
parad
helpful
terrorists
##gor
##yon
swan
scratch
graph
fifa
unveiled
dementia
dying
hedge
vert
bonus
##dog
governance
buses
barg
rumors
##apers
##raft
burst
audit
merger
rsi
romantic
##minster
ling
marin
puck
passage
cancelled
hiv
bulls
oliv
##laimed
shipping
soldier
##000
dutch
125
alerts
mccabe
##guard
intellectual
##umber
subway
transferred
debr
##ghai
expression
displayed
horror
bryant
##plus
frequent
##goal
praise
edmonton
ore
electrical
rud
rockets
##pat
motivated
fargo
whist
##oded
##osc
pointing
choosing
##gie
reachgoal
safer
continu
mills
confederate
promoted
subscriber
edin
announces
reop
##oken
##gom
stroke
portray
achievement
nico
rup
practical
pope
websites
logan
mb
##comes
uniform
ports
ze
amp
hull
tune
plug
trio
importantly
1997
acted
hardly
18th
14th
finale
makeup
accompanied
doss
ghost
strongest
entitled
dealt
rhetoric
monument
heroes
enormous
seahaw
bombs
gates
unac
salah
##vd
perce
brazilian
##children
arrangements
mandatory
##mons
leeds
##lock
chancellor
checking
##21
muhammad
ct
bash
gdp
tiss
meaningful
keys
gw
ladies
dup
yemen
abandoned
##iva
assad
yen
seam
navig
##mother
shanghai
mvp
studios
vocal
usc
nod
##ea
nurse
##ptions
equality
leban
##uctions
voter
##anim
##ologists
ek
sleeping
absolute
350
montgom
component
##erald
treaty
melania
stevens
##ettes
##erning
ordinary
pf
bra
pentagon
##ean
arguing
##iaz
horses
daw
stim
seeded
bases
burns
trauma
peers
removing
##afts
bris
##idem
violated
heroin
packers
honored
##inely
##ugu
edward
ultra
distributed
consultant
refres
##iciary
fier
surely
porn
##ylum
margins
oz
tomm
requiring
bias
accuracy
associates
tragic
pok
leverage
##aint
13th
engines
##wire
rebels
asylum
seahawks
montgomery
signals
##uten
harsh
purchases
kane
russians
certified
massac
fights
releasing
installation
trademark
sony
froz
outcomes
handled
jailed
furniture
preview
steelers
hass
margar
unh
tottenham
hopeful
doubled
eliminate
nominee
beloved
##urance
fundraising
renewable
aides
103
deny
teenage
detectives
optimistic
dent
prosper
legally
nursing
filmm
telegr
yorkshire
farms
##haul
scrutiny
mend
##eta
##annon
caribbean
dyl
bee
commentary
##thetic
suppliers
##kk
katie
ov
politically
wyn
ki
anne
examination
bigot
portra
frozen
doubles
##rad
postmedia
economics
impair
raises
criteria
celebrities
aluminum
##usive
reh
satellite
kan
wi
comply
arriving
lauren
cagr
sheff
sentiment
hughes
td
detective
bt
##aux
complained
gifts
inner
##aton
overlook
sacrif
gand
##anded
lanc
##markets
grocery
deck
restore
pradesh
mog
sinc
clicking
cockt
sullivan
exploration
crashes
conducting
segmented
demonstrated
frustration
bos
audiences
broncos
##orth
trades
##million
displays
tiger
##uces
designated
fert
frustrated
phillips
peng
##chenko
lands
greek
ios
##54
gentle
simpl
##marketresearch
nose
studied
muscle
bug
##ando
##apeut
hernandez
##itters
dynamics
spicer
bik
dated
genetic
hyd
prest
unch
usage
briefly
masters
database
##vereign
sovereign
receives
boxes
##erie
phr
walmart
acid
taxpayers
citizenship
##astics
dn
gene
explanation
metropolitan
polar
packages
lex
presidents
frag
thorn
##oni
deemed
legendary
tape
oun
aggrav
##esty
hin
stakes
downs
applicable
##omin
##uration
twist
##ping
grave
filming
bombing
derek
barriers
taxi
participated
pine
##reen
teammate
shootings
mercedes
bands
alaska
joel
aide
edt
tempor
enthusi
##itement
existence
pig
intel
athletics
jin
prost
ammun
homer
bayern
collecting
sized
##ims
startup
kurdish
refund
sierra
impose
refr
louisville
scared
posed
lect
19th
cler
metres
canadians
coat
##omy
shep
vr
roma
attracted
cc
curry
rend
convert
wishes
porter
merely
fm
ukrain
everton
orth
##oped
nunes
##jay
inclus
joshua
##vy
##uja
jared
greece
lists
photographs
##iatric
cousins
##illo
photography
restrict
biz
##jab
##lee
cliff
offences
trainer
retain
congressman
sheffield
youn
160
yahoo
overhaul
##airy
mul
flush
renewed
postp
steep
hd
lanes
superv
tourist
tonnes
enemy
testified
toyota
##father
nightclub
trigger
lawn
gibson
motorcycle
haul
1995
cruel
pond
ammunition
nixon
sew
lump
preserve
burned
rescued
decrease
advocacy
winn
stead
trev
##eded
selecting
##ahl
soup
##28
assisted
couples
jama
krem
##rics
stu
honey
scul
homet
##aving
fitz
assass
declaration
##ahe
averaged
cemet
migration
henderson
employer
obst
climbed
solely
cemetery
raf
jacket
interference
closest
sgt
lau
wrapped
economist
offerings
karen
devot
bog
architecture
##77
comic
therapeut
nap
prescrib
##isive
colleges
enterprises
computers
thrilled
honda
coinc
bobby
catching
judgment
listing
disappoint
stealing
inland
shy
escaped
ibr
deer
integration
##ilst
##oors
unav
completing
bankruptcy
##hner
##mans
leak
meter
1000
15th
ruth
£5
wels
weakness
hometown
##hd
blan
damages
recovering
romance
oxy
meters
virtually
##ibe
nv
##asi
marie
apologized
genuine
chips
##lake
##esc
carn
baptist
retali
questioning
hence
posit
ridicul
batter
troy
mcd
vic
##cons
hazard
immigrant
subsequent
concerning
productivity
collapsed
eps
evolution
cheer
deserves
responses
dm
sufficient
suspicion
shortage
replacing
homeland
samples
thirty
hannah
reloc
libya
dischar
separated
gaining
brick
equipped
notified
##inery
nigerians
pedestrian
interpret
elabor
tons
chargers
clearing
grandmother
programming
##ouch
##string
hander
parked
technological
dossier
nether
beliefs
glen
treating
oversight
laboratory
kab
##atoes
epidem
principles
ferg
##fund
jewel
oxford
harbor
representation
resur
2021
carroll
bronze
locals
##eshow
claire
skilled
versions
trusted
tours
reprod
cheaper
revol
sandwich
comedian
uc
notable
millennial
##99
buried
1996
radar
##isons
##urt
explicit
combine
hodgkinson
kend
##nold
forb
vern
ethics
affecting
rankings
wondering
vikings
ukrainian
sanct
impacts
provisions
gi
publishing
##wind
##ahan
farming
liam
ws
compass
underlying
superstar
enhanced
##rep
##ques
##aha
traveled
bruins
nominations
lapt
whilst
approve
ignored
cops
##eastern
scam
grandchildren
powell
absor
pledged
delegation
expend
smell
welsh
##ateur
indict
##ourt
apology
delivers
capitals
vowed
matching
impacted
sections
troop
##astr
##ycles
legitimate
sheer
pastor
celebrations
bottles
chaff
nestle
unaccept
unanim
exploring
appealing
##ilitation
styles
dairy
homeown
##quez
##ken
demonstrate
kicks
##oko
probation
formally
indicator
mak
##li
##fell
andrea
differently
##ante
julie
locker
nair
explaining
affir
##active
##iri
fract
140
offset
lesson
gover
drafted
patterns
spurs
##bish
reynolds
passionate
ig
##chain
##orted
##oj
##ede
priorities
hyper
fence
aging
suns
pitching
gad
##33
unions
careers
respondents
approaches
temporarily
##74
flour
scout
hackers
offshore
battling
bitter
manning
##ori
supportive
commented
resolved
deposit
economies
quote
excitement
bailey
celtics
vand
depends
femin
punjab
monster
reflected
impression
patchy
mild
frazier
##osy
mohammed
sung
dental
##arthy
tyr
evacuation
kas
pets
##65
researcher
##liest
enabled
transported
lovely
##ested
desc
##arez
seeds
glenn
gol
musician
musk
formation
brutal
honestly
tenure
pole
sauce
marketplace
slot
login
swept
tommy
topped
##omach
##asty
ferr
bengaluru
##imm
farmer
predecess
civilian
brave
upside
stup
knight
vegetables
leonard
cattle
crush
pepper
##alez
vincent
wp
1970s
holland
workout
lah
breeze
colin
equities
bulld
breathing
##tz
102
governing
lg
admits
tropical
##tors
flags
edinburgh
sque
corporations
lending
stephan
heels
cla
lac
gaza
chester
objects
denies
sask
##iq
lasting
tunnel
bip
breakdown
disgr
mete
defendants
tatt
flew
##fest
functions
ignore
punishment
16th
##licts
propag
formerly
fid
panic
uncomfort
mccarthy
molec
subsequently
armenian
rey
weaken
milan
##criptions
tackles
nerve
matchup
preventing
##aved
##power
cinema
victories
affects
crowds
alpha
slideshow
valuation
170
musicians
prevail
admit
whip
8th
rodgers
nab
wholes
communicate
tire
immun
determination
naj
holders
relation
davies
merkel
##ecca
tub
##math
calculated
misle
kidney
sculpt
accepting
substitute
worries
supremacist
conventional
##opes
##lett
tue
flip
ballistic
kus
loun
nd
crying
carey
gp
converted
##aman
scientist
remembered
cer
pti
uncle
##iminated
logistics
reminder
hem
tension
harvard
massacre
qb
obam
rebound
unacceptable
painful
cree
mario
pengu
workshop
lined
nicole
sov
##iously
urge
danc
nj
homicide
humanity
ambitious
##apes
evacuated
##eling
mm
netany
executed
robin
##oline
describing
strain
devils
hunts
##step
leather
##inding
rocky
##75
styl
tempt
priest
guided
mobility
urgent
gonzalez
amongst
bigotry
nancy
##pur
1994
slipped
babchenko
intimid
confusion
anchor
pete
venues
empower
netanyahu
hatch
grove
bowling
abuja
##echn
trace
traditionally
fortune
##inating
smartphones
cod
chambers
palmer
ducks
resil
##ags
aftermath
##central
conflicts
17th
warming
angela
dylan
lanka
stating
##omi
newsroom
tasks
##ema
apc
##anmar
hbo
consultation
relay
pays
##ahim
purple
##gle
poses
gradually
newton
disability
netherlands
dive
##ucci
underc
perez
kremlin
spoil
##kir
supporter
##zed
intersection
reader
##ressed
understands
palestinians
nationally
productive
sandy
mask
##acare
wes
repairs
bah
ships
destr
gymn
##ecur
interven
myanmar
##athers
relating
boeing
genes
reviewing
boosted
folk
tul
acknowledge
vessel
pga
infant
discipline
awk
revealing
pierre
dot
dign
##ipts
lone
riverside
leafs
accountable
oversee
##breaking
destruction
sadly
kem
##iba
##awi
5000
nowhere
clem
pleasant
westminster
##su
##uda
drone
releg
greens
##32
thur
lightning
gem
cookie
foss
technique
##afe
happiness
sorts
bother
##cats
richards
bullying
trent
##acker
blockchain
certificate
##low
exchang
lengthy
eddie
tumblr
##iop
maple
laps
broadcasting
unfortunate
##ardy
##wealth
smugg
nationalists
1993
partially
##eason
greet
tactics
improper
desktop
ace
gott
confidential
mattis
alexandria
##ucc
restricted
filling
laser
bacteria
identifying
negotiating
cocaine
preseason
excellence
prayer
##lu
shaped
reid
array
transparent
borough
replic
jeffrey
##aho
cosm
historically
griffin
##post
slim
solic
burger
projections
ner
sue
rehabilitation
jews
##irl
##ouses
jagu
lens
reluct
108
segmentation
bare
rains
corrid
server
wagner
uncomfortable
myster
##try
evident
straw
blaz
##elihood
accountability
dressing
edu
advisers
livest
organizers
transparencymarketresearch
domain
marry
killings
wheels
cuomo
standings
dirt
intrig
exclusively
drilling
sophistic
awkward
wheat
risen
lease
blu
federer
pronounced
helm
bucks
defe
afc
gandhi
warnings
commonwealth
wade
opted
demonstration
##grounds
powder
profiles
bridges
newest
governors
rebel
og
barrier
meghan
youngest
boast
dirty
##rome
##ridge
christians
damaging
canceled
##uri
undef
toilet
pv
arth
shareholder
geograph
physician
bulk
kaz
wang
notably
persu
jarrett
demol
soviet
graphic
vine
investigator
sensor
1992
czech
##writer
garb
diagnosis
murdered
##ii
##arn
apartments
battles
hurrican
cargo
pompeo
104
klopp
scng
joins
exists
acre
titans
outlet
drops
##ailable
beta
respected
delaware
fiction
brighton
thanked
contractor
emirates
composite
fet
notification
deciding
seb
clashes
##once
chol
##heimer
authentic
disabilities
indicates
stupid
maduro
len
drain
openly
##85
drought
furthermore
cia
scrap
considerable
pursuing
mentally
hudson
suburban
hurricanes
defenders
occupied
##ulous
hect
vint
##iola
##uson
scattered
garner
licence
azerb
azcentral
azerbai
rocks
creator
##inos
##stop
gujar
warn
enquir
stabil
mik
myth
worthy
loyalty
cycling
exceptional
hi
ri
stam
belle
pitches
privilege
grat
##plant
sach
schem
angle
programmes
wals
catherine
yoga
##ieties
abu
compare
pursuit
horrific
##rie
mobil
welcoming
stranger
dubbed
##through
wounds
antib
##caster
neighbourhood
flows
##bucks
accusing
lawmaker
stuart
sang
arbit
trash
transmission
mothers
manif
##boards
cyn
barrels
concussion
nfc
winnip
oxygen
hik
##ules
pand
prisoners
naval
boots
aggravated
households
nebr
##ibutes
##roe
talib
founding
colleague
rainfall
deleted
advances
warehouse
stark
##tains
##osystem
winnipeg
opposing
sof
capability
kicking
bounce
115
mg
planes
##chat
liz
##othy
1990
rede
entities
feeding
pour
##bus
qualif
principle
cv
##otherap
49ers
harper
interstate
##umed
emphasis
recreation
declining
sharma
uncover
introducing
pct
enab
attendees
##organ
approaching
reconc
immune
winger
polish
firearm
shirts
drill
speeds
brokerage
stats
politician
ebit
##oca
draws
deployment
landmark
pickup
balanced
connecting
inventory
##eda
canyon
subjects
##watch
remem
kilometers
waited
villages
appropri
iraqi
dramatically
refuse
rider
750
lp
nw
##ching
blanket
##urer
compromise
appreciated
##imited
civic
bets
nebraska
##hall
flexibility
triumph
volumes
applicants
hutch
cardiff
corey
##ardi
##isha
stomach
arbitr
asc
inclusion
discour
partnerships
gorge
directions
trending
##byn
starbucks
blocking
##29
shoppers
##ords
hampshire
wip
##tha
##thouse
permits
##borne
##comm
administrator
obamacare
fined
slip
sells
sd
currencies
unnecess
##ellation
unlimited
##alling
glas
jumping
##ullah
automation
diamondbacks
ral
courtr
rhyth
tender
##conn
verizon
instruments
ced
pants
slammed
barnes
identification
prohibited
linda
##fers
norway
newspapers
lynn
wreck
entrepreneur
##affle
mets
##reach
michel
applying
thirds
##ctic
##ener
chains
flexible
stef
oppose
fits
spart
##etti
quad
##arma
stanton
##avery
councillor
##gio
attributed
rosenstein
delicious
generous
traum
excessive
aggreg
oral
pledge
blank
unite
bend
##asha
inspire
##stown
weekday
recreational
courtroom
##27
albany
##eton
maid
rolls
plaint
crist
filmed
forgotten
nra
pointers
cherry
kin
slump
automated
averaging
##ationally
juice
weighed
boats
difficulties
inflamm
tablet
dell
sensors
hiding
clarke
avo
inqu
backlash
intends
economists
tract
brien
commem
injuring
achieving
duncan
##uv
bearing
£4
median
abdul
strictly
voluntary
##zi
##arre
entity
flagship
##essa
wrap
rays
acceptance
influential
lith
judiciary
##dling
##pen
reminded
##bling
insists
motorists
##ingu
suitable
plum
accessories
gujarat
5th
unavailable
##itary
narendra
patience
vessels
soy
recession
lemon
disappeared
auburn
##fty
glam
businessman
intelligent
curb
launches
argu
##otes
continuous
amateur
withdrawal
##qual
bmw
spa
skept
confused
wow
##acious
lyr
auditor
shane
##asses
##urred
spreading
zones
competitions
tat
minus
jenkins
reiterated
cogn
align
recruiting
gro
grill
pointer
inclusive
##aints
contents
minimal
##tc
clippers
##isms
rust
catches
ecosystem
carpet
skype
2025
mock
nail
##aheim
implications
lasted
aol
greatly
tin
goldman
memorable
graduated
convenience
maps
caring
opec
nurses
alice
nascar
examined
munich
##auc
fever
emerge
misleading
dishes
kad
wealthy
kol
prizes
adap
sharks
performers
prevented
surprisingly
ugly
supplement
scorer
disturbing
##ucted
stabbed
gps
##olly
preser
106
irr
springfield
owing
darren
##88
difficulty
worn
neighbours
tougher
contractors
evaluation
bour
breakthrough
negotiate
chaffey
arthur
##roll
##erick
juven
scary
bullets
fisa
flint
##ecurity
painted
anaheim
brock
nord
aur
sara
collusion
multip
conor
supplied
##bane
##nik
sail
ears
##eva
ibrahim
piv
exped
##stage
entertaining
silva
peer
matched
placing
gardner
pant
janet
rubber
arguably
##aku
examine
##lif
printed
##umble
austria
##kes
vintage
recruitment
aap
motive
portugal
accommodation
##allel
simult
devastated
mere
zh
protections
simultane
jays
riley
##enson
wilder
touching
psychological
hir
donors
superb
spirituality
suz
sprint
syndicated
jurisdiction
deserved
convince
boulev
hacker
zur
perceived
tong
##rist
accidents
mechanism
cure
blessed
##oville
opera
##strom
afterwards
helen
countless
scram
grandfather
aspir
intensity
tissue
ferguson
hp
##onso
##acent
issuing
##boro
lebanon
sanctuary
##oust
##eong
honors
kle
oc
accounted
incumb
fines
spirits
subsidiary
productions
enlar
luther
moss
1991
screaming
rcmp
earthqu
##oir
##aven
undermine
pleasure
##held
samuel
##assian
##law
negl
chen
conj
joey
viv
dayton
guam
##bull
salaries
shootout
mead
unbeat
hudders
gd
ana
marking
raz
partisan
##parts
commonly
##uating
alz
pakistani
cooked
huddersfield
simpson
##bh
##udes
accomplished
pedestrians
cope
dens
stored
111
notorious
counting
slated
infinity
biological
occasionally
suggestions
simmons
dame
nr
rebecca
facilitate
mig
chile
restored
excuse
neighborhoods
sidewalk
hamm
##theless
hung
##ihad
ridiculous
##iate
panels
horrible
contam
grenfell
##nis
brett
##press
regret
stones
joh
cups
warmer
youths
##aria
nevertheless
speedway
empow
##iliation
hawks
healing
administer
boundaries
##34
##acles
##omez
retreat
idaho
snapped
responsibilities
lawsuits
exercises
pirates
rings
invite
##ancies
rallied
wicket
wend
floyd
inspiring
mamm
cel
pie
invasion
lever
##itated
warrants
alike
billionaire
kushner
brend
malaysian
##rus
##oly
hungry
acceptable
chev
oy
kohl
kylie
moy
##eley
outfield
cement
defens
brewers
siblings
alleges
##py
lifting
cody
halt
trevor
leaked
adequate
dough
eliminated
royals
blend
450
pharmaceuticals
epidemic
diving
batch
sweat
meteor
boulevard
courthouse
prompting
nominees
stanford
##agg
apologize
habits
##istical
##iances
##dam
##usted
notting
diaz
sic
falcons
majors
chronicle
##pin
davidson
kenny
##chang
specialty
##mare
tory
##oard
timeline
licensed
##ols
silicon
wickets
forens
##avan
surrey
concerts
inaccuracies
ns
##isle
separately
frustrating
plaza
appet
watches
precious
rides
##far
pressed
wheelch
intensive
swedish
snapchat
quietly
gau
9th
rm
investigative
240
achievements
astrology
samp
brack
procure
##swire
evaluate
ditch
grades
partial
cryptocurrency
stoke
flooded
salmon
medicare
entries
assumed
recipe
sacrifice
##oven
curious
bucket
perpetr
lounge
lb
##feed
##urring
feared
debris
imprison
contrary
cuba
sb
wik
layer
owens
utilities
considers
accommodate
cbc
responders
churches
advisors
hikes
verified
compiled
iot
compelling
donor
adrian
complement
myers
paramed
phenomenon
cort
##55
noah
betting
southampton
sham
produces
cornerback
pills
tac
tut
communist
branches
serb
volley
regulator
supremacy
climbing
counterparts
beneath
establishing
jurors
fiber
##ortions
rut
##imedia
sooner
hydro
booking
erik
disclose
gur
beast
sunder
q4
neph
##identified
furious
wherever
##pled
stein
glasgow
mice
manuel
milestone
caut
erin
penguins
borr
##isi
meantime
starters
bite
vp
alar
crowded
##26
beverage
implementing
crops
medals
hammer
indictment
kos
unlaw
restoration
unfold
stunt
poster
fay
7th
heated
config
marco
freezing
aiming
gambling
pixel
##din
commons
transcript
stal
alexa
divide
sweeping
lid
amber
extending
renowned
destinations
displaced
##quer
litigation
rotation
measured
charleston
bikes
cork
##mail
messi
wallace
affiliate
taliban
##achi
seth
##opa
outing
irre
alien
##immer
polling
raptors
acquisitions
tide
charities
limitations
enabling
ralph
##igious
privately
priorit
burr
cct
##len
##arc
nz
wiz
buyer
algor
premises
heyer
satisfied
marit
disruption
annoy
oroville
109
naked
strat
minassian
surpass
declare
leagues
depr
appreciation
coroner
##iffe
##eav
mohamed
peoples
bloc
shannon
dividends
portrait
preca
sophisticated
walsh
algorith
tooth
sussex
jacksonville
jak
blew
##gets
##keley
offenders
wolves
sends
##ellers
##newswire
bizarre
attacker
randy
rp
stays
colts
dian
##the
sealed
corrupt
mcg
texans
richardson
nicholas
secrets
uae
montana
shepher
robots
floors
schemes
amanda
defl
holder
protesting
stephanie
shine
heal
philosophy
whistle
chairs
pyeong
burglary
gomez
hav
##alled
offs
kilometres
lamp
verification
mes
glory
credible
testify
ethiop
casey
motivation
cavs
##osi
apnews
strategist
initiated
exchanges
ndp
fres
seiz
critically
awaiting
pivot
titan
fitting
violating
distingu
banc
##fits
mane
blacks
peterson
joyce
brisbane
mcconn
connectivity
grammy
reliance
sentences
logged
berkeley
chasing
assuming
sequel
fossil
##je
chemistry
teenagers
cant
branded
##36
spare
interaction
maur
pioneer
sebast
notion
soap
affiliated
##ieg
pt
languages
sf
brib
keeper
propaganda
##orate
argues
certification
searched
beyonce
##orse
realistic
oval
utt
syrac
wooden
chapel
dragged
vertical
ney
supplier
baseman
flaw
flavor
confer
whoever
choir
mounted
natal
##pot
flick
pupils
bible
hoff
moist
sunderland
pyeongchang
notifications
brom
provoc
alleging
presenting
perception
mugabe
chin
aber
lobb
poetry
outbreak
ivanka
indoor
appealed
nottingham
riot
curve
fingers
councils
margaret
embark
deceased
gaps
trails
quinn
seasonal
##bles
incons
confronted
intimate
##ounce
freeman
beneficial
jal
enables
randall
compat
intermedi
commodity
syracuse
grip
##rane
shifted
jab
alv
insurers
horm
commitments
##retion
mechanical
laz
dependent
##went
hospitality
alternatives
continuously
##ches
structural
upst
fiance
##mu
astronom
crackdown
assignment
dana
##hes
##name
##ellar
##arity
unidentified
gazette
##oba
jesse
ravens
aes
refusing
compassion
dock
nightmare
condol
troubled
rallies
##otherapy
lenders
bomber
##due
continent
##awei
##world
shutter
##ospace
kis
##nar
##anes
##idi
permitted
##inda
overturn
gasoline
disposal
jaw
mim
finn
brewing
frost
serial
endeav
lieuten
kapoor
##oons
##lies
clerk
huawei
liability
printing
booth
##atta
aboard
olive
##around
noble
recommends
eleph
1989
retrie
gt
leap
internationally
deterior
suits
daniels
owen
arrangement
avengers
ebitda
absent
demonstrations
curtis
thir
##eno
themed
islamabad
sharply
unnecessary
expressing
marlins
aids
holly
##onde
dealer
stub
font
windsor
jas
staged
##appy
##linary
analyze
lyrics
##obile
turnover
protective
allegation
shin
##ensen
220
##afta
dale
pag
autop
bones
gav
visitor
obsc
laughing
knox
messaging
jed
pave
karl
tolerance
6th
##inces
tuition
shoe
irs
treats
manifest
mcconnell
hitter
fatally
breezy
raid
fleeing
seas
vacant
reinfor
##bled
objectives
zurich
lovers
stere
##urd
disagre
neymar
##dles
costly
recognised
spouse
alexis
disappointment
lun
##44
spice
bubble
unle
inauguration
107
define
nova
bosses
feud
possibilities
clarity
##isy
garrett
tenants
divisions
bannon
takeover
aerospace
invitation
175
fib
rhythm
alzheimer
artistic
watchdog
sustainability
awful
overdose
albion
versat
physicians
vaccine
sizes
unchanged
elaborate
##iya
##rock
##uctive
bureauc
unbeaten
bureaucr
dort
30am
propri
goalie
generating
##isure
populations
strengthening
ost
interactions
astros
plates
consists
##uala
syndrome
unbel
ultr
beaches
obligation
excluding
kris
##right
caller
telecom
retiring
moder
agrees
##colm
admir
##pack
sev
parole
rus
##itative
##xon
##fires
##alg
wrist
blown
adverse
launder
##uitt
shawn
arnold
provinces
1b
bam
instances
quarterf
nol
blessing
superher
convictions
vermont
landl
##atics
sometime
legislators
cellphone
##zel
rever
prnewswire
burnley
decreased
chill
##orton
keaton
cauc
##ju
abe
encourages
threaten
practicing
fluid
predecessor
regarded
frankly
rol
##aments
modified
##ais
shakes
credibility
julian
cair
recycling
##grad
cease
criticised
decreasing
garbage
##bird
upgraded
disg
malcolm
observer
coleman
##oux
usat
mega
##ras
pressing
##hum
guardiola
isaac
egyptian
swansea
inequ
timely
##ski
sensit
##iasm
disagree
reckless
fortunate
dl
##each
ferry
##orp
chop
firmly
raped
tribal
gst
comparing
misd
accordance
nsw
##enberg
frances
fuller
credited
bilateral
counterpart
filings
corners
acquiring
##otto
workshops
pdp
supervisor
melt
heath
digest
9160
financially
ard
disorders
lgbtq
##midt
nets
vip
##unting
##bra
header
##neath
compound
suggestion
ing
cheek
underneath
unbeliev
wentz
denmark
audi
pilots
unrest
genoc
publicity
banning
commissioners
rahul
maritime
##report
mcl
bullpen
commissioned
securing
slowed
accurately
megan
croat
devin
designers
##inction
wholesale
airports
extremist
sul
nobel
##angu
turnbull
briefed
prestigious
junction
hospitalized
duch
nt
##enne
enforce
cultiv
horizon
yellen
916045
ellis
minded
witch
boasts
norman
beds
diagnost
aired
policing
festive
puzz
weighing
ambi
delib
casting
1987
appointments
##ped
smok
obligations
lak
##fo
impeach
deton
duck
coin
advancing
##itas
##otyp
salman
passport
fent
meek
preparations
inevitable
predators
##ilia
technically
##fish
##erte
crawford
durant
bing
instantly
transplant
geographic
agu
##irez
insult
assumptions
rim
1960s
fond
##idal
theaters
enthusiasm
assessed
telegraph
travelled
hearings
fundraiser
gorgeous
endang
##acht
cyr
##mat
##mented
##inski
candy
applies
vernon
mold
pst
serena
undergoing
jackets
fow
grain
clinics
favorites
##aby
bulldogs
perth
restruct
bloody
sut
hailed
hunger
jenner
issuer
pes
foreigners
tah
shoulders
##apper
ceremon
shifts
##ifax
ceiling
nyc
influenced
jokes
alphabet
brendan
##anned
fulfill
##lisher
homeowners
beats
##eryl
opioids
wool
##inate
azerbaijan
cute
##inel
constituency
licenses
shorter
britt
metals
dimin
##66
brink
conversion
caroline
weekends
beverly
##hot
coupled
preval
predictions
flower
avoided
rational
runway
recalls
baldwin
lieutenant
##piece
##ums
barrett
patriot
gaga
wenger
##nity
conclus
creativity
q2
vander
quarterbacks
denying
explosives
sas
##strong
viable
infam
solidarity
##iggins
repay
##het
reactions
councillors
##fare
popul
holmes
##49
charts
##auer
martial
sidelines
mant
##orne
edged
extract
##eff
olivia
lil
apprent
graduation
contestants
dominate
borrowing
zan
abund
realise
harmful
wheelchair
inconsist
tweeting
pir
ventures
skate
##cot
gareth
dortmund
##ogy
penetr
persistent
bipart
hilar
kits
vas
troll
rewards
thresh
reaches
severely
facial
corbyn
haley
ramirez
arranged
pall
wildcats
mma
php
educated
expectation
##elters
##ascular
##rich
pla
leisure
##atti
wrongdo
centuries
gul
statewide
surgical
dire
##kg
urugu
fierce
juvenile
cun
wellness
##emon
cough
corridor
uruguay
pitt
disqual
reli
mines
doubts
patterson
##ao
mature
medications
concentration
neal
incumbent
##adh
crunch
medi
licensing
chi
rumours
duration
unified
incentives
##week
dedication
devoted
ef
publisher
##uki
columnist
##mith
cigarettes
deliberately
jpg
##idav
detection
1986
justify
miner
ounce
##ocal
logic
tribe
deposits
accelerate
lumpur
eug
##tor
walter
infer
smiling
missions
hostile
controlling
clemson
##mc
##agger
defer
processed
##dled
rode
encl
discounts
zip
ston
limiting
significance
eleven
##hawks
incentive
rehears
lenn
indef
outreach
1988
collectively
##ui
bark
reconstr
constructed
vibrant
trinity
undergo
millennials
newcom
##aching
##sole
discretion
cott
##mph
fx
goss
vista
yon
blair
fifty
satisfaction
catcher
jor
locks
stunned
elevated
refresh
cov
germ
simultaneously
laptop
slee
batali
psg
orchestra
uttar
ces
fusion
exchanged
jewelry
sympath
##anor
bros
intend
fails
capped
rhp
colonial
payroll
possess
##enzie
accordingly
proportion
regulated
1980
wisdom
bhar
contender
affidav
tn
twel
imported
null
carriers
genre
indicating
##rington
militant
##ifi
underwent
youngsters
recognise
diplomats
merck
kuala
##etheless
consultants
dose
harmon
surveyed
nonetheless
prosperity
##rog
topp
stint
unfor
25th
970
optimism
nh
tying
##95
finishes
calculations
zacks
cyp
variable
petrol
##oub
##emi
dill
fancy
nl
whites
blade
mainland
anticipate
highland
visas
gregory
rt
finances
kerr
113
realised
gaap
##utt
lethal
condolences
uncons
gel
contrad
goodby
jeans
quotes
merchand
experimental
##ogether
injection
ensemble
mahar
vod
abol
underperform
clever
starred
godwin
cctv
daca
incoming
peg
##hard
##jud
beard
interceptions
mates
hopkins
enlarge
merr
decides
questionable
wildfire
poised
##unal
graduates
masc
##health
##anga
cousin
##ayed
weaker
##uber
backyard
northwestern
twelve
amen
presum
gat
kens
radiation
troopers
##giving
mush
wyoming
##vas
enemies
sket
##76
rohing
homers
##ommun
relegation
kyr
committing
accessed
talents
mentor
brewery
lately
pork
##orized
##leen
autism
migrant
somers
abbott
##aul
strang
petty
##drop
ink
##orable
preston
##uder
thankful
##anche
disputed
belonging
##100
##xy
##zb
##lean
lok
xia
##lon
##gian
cancellation
laying
dragon
##iki
administrators
fueled
resorts
revival
shade
##iox
procurement
conway
parkland
strikeouts
##icans
abuses
robertson
icel
drills
verify
ply
rack
autumn
midlands
burton
paradise
melissa
needing
lightweight
forming
visibility
supermarket
analyzed
manages
fortunately
crafts
correctly
##aches
willingness
confrontation
##iments
proving
hamstring
endorsed
leo
meh
feas
declaring
##hran
inaugural
sellers
execute
tus
##feld
discusses
mound
pharma
rhode
profitable
heating
obes
135
kills
biot
infections
manual
skipper
broadband
corrections
floating
taxpayer
eman
skies
jeop
leaks
##ksw
culmin
sting
##uccess
##eny
outlined
consumed
avoiding
copies
voiced
1984
neighboring
exploded
middles
##enh
abilities
117
surround
hindu
frequency
sworn
revolutionary
phrase
bids
tb
conceded
committees
maz
miracle
pard
altogether
livestock
coachella
erupted
##tin
##esters
preference
pressures
effectiveness
grande
penny
##lain
educate
kerry
gauge
handgun
##auth
documented
harbour
unlawful
wan
profound
chapman
juvent
vendor
cautious
ancest
genocide
obesity
muk
##uds
podium
dispar
moroc
shepherd
jihad
qa
irving
112
absurd
##ranean
hed
broadly
reflecting
fascinating
burg
networking
wrongdoing
mansion
sacks
tires
##rah
console
forty
midway
berry
nafta
paired
fright
shark
stabbing
aerial
xav
##opsy
ibm
demonstrators
outdoors
lal
rit
wich
shelters
spike
arctic
harmony
prepares
johan
totals
animated
1967
raymond
iceland
piano
holt
collections
breed
trafford
troubles
bipartisan
worship
thermal
duterte
territories
conclude
levy
##omic
lowered
infected
sidel
subsidies
##hou
##wu
##cock
castro
boosting
miranda
marginal
zuma
reunion
nintend
shorts
airpl
burial
semit
ripped
##tures
225
alumn
contributor
suburb
separation
beckham
aval
disputes
unsuccess
juventus
##unted
drones
roberto
imperial
failures
pockets
oriented
nintendo
##asa
comparable
gosp
kc
##uz
unrel
complexity
najib
syl
##itate
sounded
intentions
reinking
imaging
midday
hasht
maintains
mohammad
namely
celtic
pam
relied
posing
chrome
debbie
battled
magistrates
ordinance
relies
grows
##leys
quint
hamas
tornado
ambien
slic
tense
230
##cha
spelling
lloyd
fallout
bib
expose
##ashtra
eleg
wc
monkey
specialists
albums
mam
##antha
##flow
mixture
flowing
skr
curricul
mindset
huff
characteristics
##most
mineral
steering
eligibility
abandon
forthcoming
figured
diana
adtech
convenient
##stit
deliveries
advantages
dess
##nc
thrones
semifinals
transformed
observers
forensic
nig
patent
positioned
batteries
thereby
##uba
##aky
##lements
dispens
navigate
sebastian
mediter
heaven
acute
roast
conting
jackie
bleeding
##mus
chor
leh
slower
travelers
##kov
theories
splash
prescribed
volksw
tally
broadcaster
gilbert
sv
stride
schum
greenhouse
withdrawn
newport
justices
performer
##tedly
distracted
estr
##rix
##79
nug
parallel
bombings
inject
endless
complications
burke
exter
fixture
settlements
sacred
remembers
appla
##eters
derail
aggregate
hilton
rect
panama
sticking
##will
budd
favorable
utter
seaf
advise
coy
murders
switched
tehran
congratulations
##oints
vangu
##enter
durham
sink
yad
indirect
medicines
fowler
insurg
mcgr
clayton
grief
hog
touring
desperately
tucker
regards
114
identities
appreh
literature
bacon
receivers
potter
ambitions
fruits
##cu
ventura
hartford
fertil
dignity
disin
setup
clad
grie
ipad
evolving
correspondent
bast
heck
mathem
shouting
##aye
monaco
patel
costume
brokers
gravity
rohingya
curriculum
clause
obstruction
vanguard
monica
generic
lindsey
postponed
eater
remainder
stripped
themes
gesture
##rea
tops
profitability
volkswagen
##hart
credential
##hawk
lahore
til
185
##hem
christine
turb
##ugging
recipient
blowing
midst
salis
##ewan
ethan
tipped
stur
performs
bolt
sally
bernie
joked
occurs
registering
convey
highlighting
tattoo
##46
##93
surplus
##fut
compliment
cocktail
laundering
##reet
spider
scoop
##isk
spear
couns
relent
slate
sny
denial
nun
sanction
macro
kidnapping
dangers
pts
anz
plag
graft
##ogr
prediction
adjacent
threshold
boo
pist
blas
submar
armstrong
30th
assembled
yours
caf
650
ras
festivals
pi
##etics
##urst
worlds
references
volatile
##eon
immin
lodge
suck
hardy
00pm
kenneth
hassan
mediterranean
hollow
elbow
shutterstock
deliberate
pom
inmate
congest
quart
notre
environments
exemption
attraction
pacers
wines
spraw
confirms
##respons
unbelievable
doj
laure
lacking
rifles
watt
computing
edit
resistant
##chan
successor
closures
1985
containers
markle
boycott
turnovers
risky
machinery
rapp
discrimin
##loe
prospective
lucy
##adan
8pm
neglig
owe
##say
##istically
salem
nicolas
synthetic
##rat
legion
julia
revenge
blvd
staffers
loop
seekers
selfie
cataly
cybers
mercury
lub
niss
laughs
sergio
mitig
##ugs
128
snaps
occasional
slowing
mysterious
##case
spends
carrie
idol
sidelined
assisting
worrying
sheets
##brough
##ophob
##arios
gateway
screw
liquidity
tee
##affe
g7
tackling
ellen
expenditure
##link
steals
rw
rans
staples
haig
restructuring
aunt
tends
nepal
gupt
independently
£6
laf
##asia
arlington
rockies
paramedics
therapeutics
goodbye
##rez
ish
embedded
awaited
cens
devon
##uy
evolved
pd
##root
##eca
tariff
##etz
shelf
monitors
downgr
brav
bless
bliss
traumatic
wichita
cage
monroe
panther
##oulos
affl
surveys
mounting
disresp
salad
186
liquor
yale
##bod
continental
imagination
beside
##now
submission
compact
##atchewan
999
kensington
salisbury
darkness
pedro
thurman
preferences
##ulative
belgian
undersc
saskatchewan
interface
unconscious
congreg
##affir
eventual
poisoning
bp
203
##icting
showdown
cull
guer
kon
##bach
thrive
olds
songwriter
submitting
##run
snacks
impaired
proprietary
maharashtra
afterward
##iac
##yers
sake
##iler
williamson
wondered
seating
magical
coordination
thoroughly
kg
waffle
surfaced
unst
##books
assaulting
ankara
fury
##rov
##amine
usb
healthier
travels
##yne
minors
tanks
hein
fuels
cunning
relate
smashed
contrace
metab
infamous
norwe
edited
louise
beverages
snyder
yam
theor
undis
rivalry
##etically
census
mash
newsletters
fatalities
##bin
##ager
emotionally
tournaments
incorporated
canal
blockb
merit
competitor
stafford
dominance
bans
sip
patric
exceeded
##bir
resemb
scra
clearance
functioning
adela
##acey
mw
chant
tore
##rob
contention
finest
desired
providence
sexy
unse
insiders
precise
toe
##ilateral
hotsp
hott
moz
astrona
bruno
uh
##ader
reaffir
suited
resolutions
endorsement
atop
teamed
archae
relaxed
nike
goalt
unlock
poorly
legitim
nok
##rest
##agar
deuts
reson
forwards
kang
basement
kara
##icides
backdrop
competed
fs
ern
premature
mariners
semifinal
ks
sho
##itte
humble
7pm
abortions
routinely
stormer
precision
intentionally
##anyl
incon
explor
leslie
##agwa
pep
geoff
jamaica
afrin
flavors
swap
nn
embraced
vest
##igma
##astrop
coached
##ivities
freeze
conditioning
upgrades
overwhelmed
affidavit
butt
intermediate
sights
valerie
hardest
pearl
filmmaker
gala
ie
##rera
##53
##78
speeding
retained
enrollment
jaguars
fals
sunset
accidentally
##tse
stroll
samantha
disciplinary
timberlake
hw
wu
##mers
founders
hugely
counted
alfie
acclaimed
decisive
refers
vari
kkk
##long
gunfire
benz
favourites
reinst
##olved
beers
orbit
hacked
owed
jill
xin
##ulates
grizz
tribunal
##heim
lining
neighbouring
rabbit
adelaide
turf
eli
essay
wears
genius
##uka
buddy
##rec
stitch
muscles
##opy
robbie
scoreless
guardians
fixtures
warns
##iatoday
recipients
wrestle
pumps
gin
riy
##ilion
iq
##isely
endured
subtle
thankfully
semin
paintings
allied
damn
lamar
sq
zucker
10am
pruitt
distress
jumps
guild
conclusions
anders
##leep
sah
bradford
substantially
##arius
allison
joan
nigeriatoday
sergeant
nigeriatodayng
highways
philly
promotions
tiff
helicopters
##iago
##foot
mnang
reluctant
caz
shades
startups
tmz
unaware
griev
ethical
scenarios
mered
##kowski
fork
gospel
##marks
##aults
isab
##opoulos
145
reboot
mosul
essence
statistical
kv
slavery
recipes
prolong
earthquake
riv
prisons
ahmad
petersburg
replay
indefin
resid
##quet
##group
interpre
fentanyl
fuck
rf
##sch
##urry
terrace
satellites
steadily
woke
##ahah
glimp
glimpse
icc
marri
islanders
lyon
mercy
ips
builds
lesser
enjoys
##ulent
successive
hb
shaking
mnangagwa
fraser
grams
##gey
##ovan
nost
calories
rbis
topping
signatures
gunshot
editors
unwanted
##sk
kany
lc
##38
##agher
outer
crook
manufactured
blonde
deportation
lighter
wand
correction
moor
timothy
immers
tamil
imminent
meredith
jol
expo
##berger
tsx
commodities
dys
doping
hast
yog
##afort
aurora
##elly
##izable
messenger
savage
reservations
allocation
plymouth
bie
anfield
hispan
humor
bidding
batman
permanently
lud
vegan
misdeme
stellar
indicted
halted
rage
switching
##casts
##isco
sachs
reconciliation
zen
pokemon
aka
reservoir
bounced
##usting
##robe
##found
##idy
tricky
sta
manafort
basin
believing
tempe
pg
xbox
##uan
surged
heavyweight
psychology
pdf
asleep
fron
distant
dismant
bedrooms
spillway
neill
##agne
preserv
storyt
tracked
undermin
likelihood
archives
trailed
loses
archive
infin
banners
instructor
xavier
##chem
£10
pharmacy
ipo
pistol
glac
barcl
##beit
tunis
luckily
elevations
graves
finalists
##ucts
belongs
unanimously
ferrari
natalie
lh
##arians
clutch
helmet
turnaround
laughter
mish
##advant
steak
1979
humph
centered
colored
turnout
sabha
embarrassing
labels
habitat
crosso
norwegian
convinc
poo
sticks
indul
middleton
qualifier
##lot
casualties
##erable
delete
phillies
moody
bernardino
lender
robbed
##attled
greene
activated
complaining
touches
1983
omar
organizing
unnamed
2030
offender
cares
finland
defam
socialist
ideology
6pm
inability
##stan
stiff
constand
hail
premiums
sheep
americas
midwest
##atories
ough
coral
sharon
sergei
isle
grind
##adequ
hitler
disturb
huntsman
inadequ
newborn
sentinel
freel
skrip
##md
readings
essex
##hani
sherman
merchandise
forbes
##uity
chry
blunt
slaughter
skating
tablets
nissan
ole
##ulin
scouts
geneva
partnered
##uffle
##anthrop
##steps
spotify
planted
hogan
unsafe
aberde
braves
kor
vick
albeit
singled
superhero
dodge
halfway
##iens
presenter
trailing
bombard
sush
smiles
##guy
uncertainties
foles
pp
pile
##upp
##ioned
artwork
distinctive
##icia
admitting
hayes
magistrate
feather
disadvant
legends
minorities
oath
pyr
rounded
seller
wildfires
uploads
bees
rochester
210
##geries
qualities
examiner
southeastern
towers
##sky
##vine
##jee
##arten
attractions
kurt
cay
litter
matur
sank
traditions
malicious
prix
remot
lucr
unpaid
##trump
##ached
reflection
streams
safeguard
adjustments
hottest
lucrative
searches
behavioral
famously
handing
crab
recruited
instrumental
ntv
footprint
revis
extrad
pestic
geop
indicators
##opic
softball
unpred
evangel
##oppy
dumb
monuments
employs
##elo
charitable
restart
troubling
hint
roth
peru
retro
pitchers
attracting
defenseman
##cci
123
sprink
destroying
hilarious
tosh
##chy
abh
##owdy
consistency
consolidated
##itudes
weed
predomin
tuck
##cester
##mania
batters
reacted
telecommun
panc
##sson
##earing
transfers
tak
inviting
injust
pulse
##nat
commenting
boring
##ecd
##ulus
cognitive
unpredict
prud
##ocaust
kohli
##reated
ate
chatt
handy
##iw
prone
oils
##elong
hungary
croatia
ix
salute
halifax
billed
appetite
gown
##unders
jungle
fairfield
undoub
hats
##amy
reagan
bro
directing
prote
malik
duchess
alumni
##anks
chew
purdue
treasure
ricky
dum
nb
##build
##adena
blo
katy
ordering
whale
betray
barred
associations
emphasized
dread
nit
poured
vatic
innovations
##holm
rumor
shi
surgeries
solving
billboard
holocaust
detr
andrews
unconstit
##kr
distribute
teaches
fores
commence
locate
terrain
shipments
redskins
vandal
abby
aggressively
inequality
turmo
survivor
spoilers
##otype
methodology
bleacher
fount
relying
fas
tube
torres
grabbing
enrich
venezuelan
nikki
yong
purport
shelby
camping
collar
philanthrop
mistaken
ivan
umb
uncovered
pens
chore
sixers
wheeler
kathleen
commuters
greeted
##osport
cooling
mcmaster
bicycle
schmidt
cardinal
storey
webb
punched
nons
##ilation
gofund
bowls
minn
gloves
manufacture
culinary
turmoil
##mb
accent
ought
##page
refur
1982
lis
capitalization
tasked
dismissal
geopolit
ala
flair
118
indexmarkets
shutdown
sequence
indexmarketsresearch
reel
downstream
filter
multimedia
gymnastics
apt
ambition
enrolled
reversed
stretched
breathe
echoed
graphics
aisle
terrifying
vegetable
dustin
fitzg
stern
servers
labs
270
magnitude
dir
##with
##aters
precisely
inex
accelerated
codes
lover
##rs
outright
hone
vince
##oos
unin
morrison
enters
freight
contempl
alarming
cunningham
shipped
116
eco
teresa
reduces
##laren
##uer
rapids
cw
##anson
##lander
mosque
##56
##hips
laund
elon
irreg
campaigning
trey
corresponding
dv
diplomat
lips
blaming
leaning
##iman
sput
colorful
credentials
mast
retwe
void
ginger
pab
flee
vatican
revamp
knocking
cynth
sack
confessed
interpretation
gofundme
pepp
fixing
boundary
isolation
dumped
miners
factories
baghd
blasted
##future
wong
quicker
biology
photographed
##emouth
scare
skull
##ennan
athens
budgets
paths
renewal
erect
zimmer
exxon
wors
downing
barbec
##rain
##thes
abusive
booker
closes
laughed
endangered
##unct
guine
illustrated
kendall
precaution
##kill
upt
flank
hawk
irregular
walt
surrend
apparel
examining
wynne
positively
##ml
##add
quir
detected
contests
molly
dilig
hil
chloe
linking
hurting
1970
dixon
##cup
##oro
##ansing
premiers
bella
alternate
rafael
yo
uphold
schne
specialized
insisting
beau
flown
##park
naw
##tar
##xual
payne
barton
roland
consuming
physics
peacefully
debuted
perpet
miguel
ez
pizz
toast
beans
reno
##dc
alp
courtney
occurring
refriger
railroad
aggression
repe
circles
fatig
falcon
caucus
brass
thriller
189
1968
atlet
airs
identical
ethiopia
##atable
##ondo
renovation
rebuilding
ain
hitch
mats
wit
prescott
likewise
lacks
pors
amph
junk
regulate
diplomacy
torture
derived
bargain
obstacles
challenger
vicious
recurring
judging
objections
ignor
cristiano
wendy
clarks
charm
explicitly
weekdays
jae
colours
careg
loads
philippine
announcements
huntington
##eer
spur
subjected
grandson
rainbow
linux
##atched
evolve
energ
eliminating
braun
knicks
engulf
##maid
collaborative
##station
organize
classical
christie
nadal
##table
##ovich
discont
contested
warrior
dud
##encia
informal
benefited
##proof
berm
praying
stack
bye
seafood
ftse
cuban
dancers
ineff
crashing
swings
retaliation
pont
concealed
deaf
grim
imposing
devil
28th
initiate
calculate
patron
##42
grandpar
coordinated
unhappy
mckin
aly
reigning
##37
##arf
depot
enhancing
composition
cnbc
##arta
southwestern
potatoes
mccorm
monitored
allocated
disrespect
arra
rovers
9pm
orthod
yadav
sacked
wallet
anxious
hick
bagg
precedent
##econom
##otti
cooperate
undoubtedly
newer
##ernick
contenders
detain
threatens
tolerate
cory
wield
determining
gotta
disl
bis
unm
supposedly
cardiac
duff
##kind
ani
##houses
##gence
##edral
manit
violate
televised
cybersecurity
ket
justified
processor
amended
barber
cultures
jacqu
##alay
walton
layers
unconstitutional
composed
municipalities
damp
##eni
encountered
pasadena
sharif
volvo
trustees
phillip
succeeded
cdc
stranded
liberation
floods
rica
##alt
##uese
loot
stain
colony
ullah
bn
dab
22nd
##folk
johannes
##ava
organisers
serbia
2b
##48
##inas
##ovascular
posters
##ounters
auck
bpd
##ye
adorable
strengths
4g
##igo
europa
westbrook
reliability
lance
berth
1976
pelosi
interfer
wyatt
bould
alison
reps
kuwa
lighth
portuguese
hinted
cec
##game
##brand
1981
agreeing
baking
amn
southgate
encounters
tags
refusal
insurer
trap
manila
heartbreaking
conferences
##ecraft
trin
bikini
reilly
##abouts
dawson
catalyst
##avel
shoots
recruits
auckland
winston
statute
hyder
marquez
geography
germain
kinder
flet
snake
stylish
##amo
resh
toughest
##giene
redevelop
phd
detailing
t20
£8
standout
cigarette
kess
niel
##osity
listened
nyp
tuned
jinping
##mental
kathy
pornography
fitted
kiev
stairs
23rd
hygiene
advertisers
##dar
##anti
meddling
standoff
kanye
aligned
##uffed
daddy
atletico
bluet
vance
stagg
76ers
forgot
bs
von
flats
creators
##archy
resilience
##nia
##esp
##aways
attends
immense
dugout
autopsy
skel
knees
bullish
adjustment
revelations
##nan
assail
dominic
tactical
pvt
##hear
##anie
proxim
realdonald
cornwall
counseling
toddler
3pm
throat
kaep
distributors
raids
##angelo
experiments
realdonaldtrump
hij
##drew
stumb
temp
flyers
hazardous
tractor
density
cynthia
inhib
glou
tightening
degr
headphones
hammond
amendments
genuinely
lancaster
trek
confirming
captioned
chevrol
pec
ya
##imeter
wasted
easing
mentality
##gard
monte
eyew
abdullah
hicks
mesa
mayo
mccl
##ieves
johns
admissions
nichol
middlesbrough
##ifa
marketresearch
demonstrates
fitzgerald
chairperson
lacked
overseeing
##bone
##31
indy
##ulture
##airie
emailed
hurdles
quantum
intriguing
sci
calf
qualification
lindsay
zuckerberg
wished
homem
accidental
appliances
occupation
##bee
##quit
correl
lexington
covent
navigation
dos
##live
elimination
verbal
cathedral
##ulator
morocco
bluetooth
##fly
intake
apex
turbo
orientation
broward
hib
lowering
skirt
combining
contracted
deutsche
improperly
chevrolet
dund
fen
withdrew
bypass
leone
waist
faithful
##oka
marion
tomatoes
silly
shelves
suburbs
pursued
ignoring
autoplay
aberdeen
byr
este
plunged
kaepernick
##astically
brains
requesting
kimber
jag
shit
tres
upward
intact
pale
##vs
buys
washed
diane
mcn
##ofi
jewell
brigade
inflammation
fro
comprised
intercepted
defeating
adapted
volleyball
##olph
##eka
obtaining
constraints
quoting
exterior
shook
nuts
mcil
212
assumption
adventures
neglect
sprawling
slice
reminds
gratitude
nolan
alder
smash
##itorial
lava
adaptation
caes
##screen
vanessa
lukaku
crushed
patricia
188
##master
##aders
oracle
assaults
##esha
accusers
constituents
kier
santos
binding
cyl
jos
lia
mla
##agara
forgive
chestnut
f1
fou
gy
##rique
##contin
1972
blockbuster
anat
crus
hype
fletcher
phu
##inum
##chool
fellows
##htb
maiden
presumably
hashtag
gupta
##erse
inquiries
somalia
lionel
paramount
gavin
##cation
lineman
problematic
##wright
jd
polled
disastr
potato
stair
##issance
intervene
sensitivity
famed
nearest
evaluating
convincing
aaa
##atan
advancement
supervision
##iak
##orf
directive
kickoff
partnerid
guarantees
veto
cush
larson
marching
surviving
sep
imagined
##hydr
marketresearchfuture
paw
vault
##47
suing
emm
publications
observe
sie
lowe
portal
rented
24th
islamist
punished
##elman
##osures
##ptive
hallow
extremists
cruelty
ud
zack
##addy
hospice
negotiated
documentation
hash
allan
technicians
attackers
##eson
peaks
hornets
plaintiffs
lsu
educators
metoo
willie
mansl
nostalg
weber
assurance
##rooms
romania
shouted
mclaren
yang
koreans
cambod
clarify
##asse
##formation
companion
earliest
landsl
obsessed
carnival
undefined
kell
126
keyword
promotional
paperwork
urgency
##court
brace
pierce
infectious
hispanic
manslaughter
punt
##jet
mann
##ollo
prejud
hydrogen
accuse
backgrounds
runoff
trader
declines
architects
550
bolster
oven
##pear
##anova
digging
etf
bolton
knockout
lament
##aland
unint
additions
##undai
kindness
trustee
concentrate
wellington
harness
hurts
jammu
regina
proves
155
continually
motley
personalities
uganda
baham
vind
contempt
existed
##geon
raced
belonged
robotics
preservation
##omon
mariah
puppy
##ieth
slay
johnston
infield
1977
undercover
indis
militia
bieber
mouse
uw
##owdown
elephant
850
fcc
carers
consort
moms
vacu
adopting
itunes
nickel
efficiently
##ser
cared
lobbying
cairo
##listed
notch
unreal
overly
ensures
##illery
accessing
mls
alerted
##ulsion
##quin
dunk
fabulous
rigorous
cardiovascular
jc
##gone
texts
disastrous
##39
portable
hyundai
ci
resumed
automakers
subd
tasting
alley
packs
males
sophie
##erm
##inging
##atorial
punk
heightened
gc
kt
katherine
saga
stray
practition
jp
ump
wig
##rik
indec
##graves
learnt
evaluated
cocon
fundamentals
interception
wary
##erness
virat
observations
invit
fluct
semic
constitute
speeches
stalled
conjunction
ransom
baked
ngo
canon
disconn
superst
portions
cooperative
symbolic
proximity
coventry
wt
clues
happily
pipes
outrageous
strangers
destiny
ramos
pinch
888
niagara
mali
##ophone
2024
organizer
fernandez
sway
##bart
indie
119
volcan
radi
baton
browse
inconven
kot
nasty
##arts
tricks
##140
liga
pivotal
pund
mari
quantity
dispatched
leah
condemning
fernando
mogul
##ications
##uto
tracy
upheld
noel
milton
burgers
260
bits
newman
coating
inevit
animation
meyer
workouts
##ospher
totality
float
gifted
ioc
doyle
ours
australians
forefront
bryce
inadequate
##function
pavilion
##sten
ori
mccain
##ourse
costing
hayden
observation
tossed
##usa
abrupt
pairs
##illes
##ahi
##after
extremism
mcmah
cocktails
wounding
##opr
lauder
isaiah
molecular
purported
lodged
wander
neat
yeti
sensation
sided
certainty
cheated
##nal
nooz
wn
##cepts
eden
executions
forests
municipality
secular
platinum
treasurer
sideline
gangs
disgrace
maver
burk
donaldson
1974
surgeon
enquiry
surprises
zamb
##matic
catastrop
structured
catastrophic
mell
rory
acoust
costumes
origins
magnific
abraham
herbal
lightly
sedan
concepts
##points
reacts
qualcomm
2026
aus
roller
assessments
niche
commemor
##akar
expired
boyd
hypoth
presentations
billboards
measuring
accompanying
stif
##osition
irma
francois
surrender
instructed
das
interm
##bley
##yside
freely
versatile
tina
##had
##pit
valencia
pals
afl
##ichick
deferred
airplane
filip
pops
benefici
villain
answering
philippe
sungl
amnesty
outfits
1973
reopened
##economic
##ocity
abn
web1
diox
congo
belfast
territorial
##swick
##fil
##owitz
intol
knot
persecut
cbi
##iaries
26th
silk
vocals
lecture
ub
##ashi
handic
arrow
defining
rogue
chandler
osh
##endale
denis
frontier
hawkins
crafted
usatoday
gn
unauth
usher
waiver
specifications
amenities
naming
incompl
##ylene
shields
sneak
hyderabad
mald
balloon
liu
submissions
pilgr
assassination
bride
groom
telesc
orph
recons
sheikh
remed
pools
headquarter
dispr
windy
integrate
spectators
scholar
abbas
halloween
disclaim
£7
bloss
##ometer
metall
terrific
festivities
toshiba
geopolitical
##aires
suspend
##closed
sandra
belleville
##kett
owning
cedar
grandparents
stip
##ibles
terrified
fisheries
rita
enact
belichick
destruct
##writing
bombers
##kok
guilt
magazines
undisclosed
perkins
##ishes
regain
poul
pensions
sensational
pelicans
##amic
plastics
affection
jpm
##rise
paraly
marched
##dened
revive
##marked
cartoon
contaminated
tomb
distinguished
bunk
jerome
##zman
##osion
sundays
tapped
conform
defensively
arrivals
secretly
graduating
comprises
5g
aa
rhino
coveted
phuket
##inence
beings
##oda
canber
##heads
vouch
##vest
##isse
chim
northeastern
cosmet
litre
nielsen
##rated
##ovo
dont
consc
norfolk
setback
payout
judy
jackpot
malware
consequence
cuis
embarrassed
discharge
bach
monop
situated
irrig
ballet
activate
danish
participant
oversees
decorated
akin
##uding
cans
monk
shakespear
chir
122
schneider
xl
##ologies
harden
##shots
##feit
beneficiaries
outgoing
residency
intervent
annie
unpredictable
bourn
pud
##places
slo
youngster
semiconduct
thieves
ampl
classics
##09
124
rai
breakout
rocked
ladder
brunswick
##ourg
##boat
alberto
ew
yac
reef
canadiens
mcilroy
dioxide
incomp
presently
132
infring
purse
translate
nokia
lol
lte
invision
192
busch
fringe
##agers
quo
campuses
parenthood
jakarta
coins
##aram
expans
garlic
yas
##oise
oceans
lonely
vigilant
lithium
kub
pune
ample
cobb
connects
27th
cellular
stretches
prevailing
lied
boise
eurosport
testament
danielle
narrowly
pearson
zar
chich
##ulk
seated
boarding
gallon
jointly
skeptical
administered
yearly
extends
audition
implied
sind
##eco
fraction
##otypes
##note
prairie
sailing
strained
debates
hunters
whereabouts
summers
##iciency
hiking
laundry
fb
gs
nk
##z0
##orig
chun
exams
alfred
gle
shab
triv
##ocument
##ultz
vijay
##rella
1978
chefs
malawi
circus
schedules
evacuate
misdemeanor
nak
capturing
semester
outsour
chenn
byron
slowdown
overturned
pics
##rod
comics
##ieu
##quis
mint
129
wishing
organs
bahrain
dul
bean
##ectives
integral
nicely
nypd
##fi
altered
couch
##eke
##iji
fresno
ik
##mines
##ulia
saturdays
recordings
fost
##dings
##ocese
unre
rivera
overlooked
nicholson
ars
martha
armour
swiftly
##fect
donovan
kinderg
expressions
verge
applause
publishers
revelation
fathers
##last
##inis
scotia
carriage
parson
##getown
concessions
females
contestant
bcci
##pec
handles
delegates
eugene
notices
snack
individually
communicating
wardrobe
homemade
##izers
varied
promotes
planting
literary
igu
uniforms
relieved
rag
condemnation
slap
msn
fp
inhab
erie
positioning
klein
quarterfinals
entrant
undocument
##glom
compromised
ians
rees
feast
glove
11am
sanjay
recognizing
rosa
plagued
undocumented
swall
pushes
rooted
##zan
205
plains
insert
kingston
braw
designing
labeled
##ipple
whitney
cautioned
surchar
metre
oscill
##patrick
canberra
##wi
##gee
pean
symph
ike
##gon
##eto
ambr
insuff
annex
215
accomplishments
imprisonment
tumor
congestion
##68
##iko
concise
considerably
frankf
nutri
staffing
cannon
anticipation
fragile
hut
thrilling
consume
subsidiaries
fict
stump
bray
lifelong
shaun
cows
oilers
observatory
nephew
wf
grit
crane
oneplus
donna
improv
gallagher
sunglasses
kaw
##ials
##iza
midter
handc
deadliest
mechanisms
homelessness
vacuum
tand
spite
##uchin
globes
spacex
rewarded
addict
ramsey
microb
##oya
housed
padres
surfaces
disruptive
stamford
bracket
injustice
ou
##anas
##stad
outsp
herman
firefighter
undertaken
popped
sag
functionality
inconsistent
9am
##etical
margraves
bankers
fairy
mortality
perspectives
dorm
offenses
undergrad
misses
##liner
layup
seag
illicit
pulls
dragons
karachi
memoir
resilient
coconut
nou
propose
fifteen
proposition
rupees
guinea
tuc
##online
cran
allege
shortages
correctional
discharged
premiership
##esco
arise
patriotic
scholarships
cycles
serie
reliever
##eze
tol
##isible
goose
##ouring
moto
probable
singers
departed
vars
##efa
conglom
peel
clement
tyson
proudly
##uers
pratt
consortium
##41
clips
vitamin
emanuel
manitoba
expires
eased
##anagan
hailing
wem
##soever
prey
practically
hoffman
mourn
##via
##estoppers
quin
designation
curios
anush
insane
societies
sixty
bengals
121
builders
embracing
bashar
norms
xxx
##face
amir
envoy
mindful
sponsorship
prostit
##67
wast
respects
expresses
cms
##asis
##iani
florence
separat
##cor
frames
outsc
bowler
prohibit
aluminium
outfielder
goo
incomes
##aleigh
masses
catalan
invasive
bournemouth
brake
augusta
hobby
smack
moisture
barclays
bermuda
##poon
touted
beacon
inexp
sliding
automobile
cout
cluster
tongue
fatigue
plowed
injunction
denounced
interfere
farewell
forecasting
saunders
##ieri
airbus
humane
eyed
pediatric
abnorm
scoot
honoured
##imburs
##iesta
rouge
baj
##iating
##vet
georgetown
1975
skiing
prolific
preceded
bargaining
welles
##roft
colder
lomb
underwater
paige
debts
hampton
railways
reyes
##tw
##empl
consultancy
schumer
tran
##annah
packing
weighs
nigel
fares
shortstop
horiz
varying
apollo
31st
therapeutic
##rose
##gent
consciousness
##continental
lut
socks
muhammadu
##ovak
downside
265
##etto
distinction
photographers
jacobs
reimburs
reset
lowry
optional
halls
classrooms
##eur
vogue
whopping
grapp
29th
literacy
chased
##oding
sourced
sputnik
orioles
##ayi
maya
reasonably
##sworth
inevitably
##check
apiece
##fw
shea
develops
substances
pest
warfare
slogan
explored
succession
dresses
laden
bates
fax
verb
dunn
controller
tesco
voluntarily
gly
lup
mia
##ciation
strengthened
bangkok
headquartered
tir
##edo
triang
suarez
barca
cald
assistants
fairness
exploit
exploitation
plunge
cob
encry
ordeal
segreg
cleaner
shelton
reneg
chaotic
reconstruction
fountain
nonsense
ds
dang
gast
##change
traction
cram
50th
berkshire
aspirations
tata
wald
whatsoever
goodman
ballots
330
attributes
johannesburg
incomplete
spac
willis
clare
staffer
brotherhood
watford
portsmouth
outp
pasta
##forward
instruction
enacted
assure
distraction
thames
accred
redes
customized
emmy
flies
governmental
curling
widow
escalation
undertake
elegant
disasters
playstation
macdonald
floral
1971
joking
##card
##ados
confusing
looming
salvador
thanksgiving
tendency
buffett
rooft
blanc
servants
filters
##uffs
unsure
pact
wholly
dried
christina
digits
mnuchin
portrayed
yelling
zoning
onc
champagne
thunderstorm
1950s
batsman
stefan
##hurst
##usk
hurdle
dumping
byrne
##69
exempl
##atham
klan
inputs
supervisors
phenomenal
tiffany
growers
variant
cheers
picnic
illnesses
empowerment
spearhead
shakespeare
bisc
counters
proposing
patrons
welcomes
s8
##ainted
happier
stalk
playground
creatures
magnificent
brennan
caliber
collided
antar
corrected
escalating
nude
##stra
fors
##cripts
ensured
miz
##ingham
##udge
magu
selena
submarine
bum
##ycl
advising
##manship
napol
massage
encomp
barbecue
contentious
kristen
chennai
uefa
suffers
hanson
jedi
rope
tailored
guitarist
sympathy
bakery
defeats
ctv
rats
recount
uss
enduring
steer
interventions
4pm
##izations
donating
##azed
netted
##mington
##mn
##jection
##hamed
liabilities
watkins
maturity
staggering
varsity
spat
metrics
keyboard
settling
##names
stoppers
soared
backpack
politico
improves
liberties
envision
##roots
telecommunications
wembley
unanimous
kuwait
ming
wah
shores
cracks
personalized
constable
rpfl
ceremonies
##nataka
elaine
shutting
congratulated
yates
zak
characterized
elliot
trespass
wives
woes
economically
refin
incorporate
soda
sovereignty
##kirk
acl
hc
soaring
demographic
basics
catering
prolonged
oht
sincer
shapes
sands
prisoner
thwart
tyres
auditorium
blasio
##yton
kne
fielder
spinning
affirm
jub
##jans
##raj
categor
##fts
stems
##ipher
cried
competit
##shaw
jeep
interestingly
listeners
atmospher
reservation
sore
280
thoughtful
nicola
##thritis
exac
claud
ames
144
222
madness
karnataka
libraries
cracked
vibe
wen
##mill
nuggets
kum
beam
adoles
stretching
jurgen
utilized
lend
tales
##ishi
paulo
unsuccessful
##uner
1969
huck
mae
consolidation
mcgrath
outspoken
nah
##vie
timet
airstr
impeachment
goaltender
exacerb
gowdy
listings
##ophe
recognizes
flagged
jenny
ion
##turn
straightforward
cleaned
installing
bundes
proteins
hulu
##journ
301
skid
##kan
##onies
gan
##times
##mag
gron
expire
herb
freeway
jorge
3m
wax
##61
grasp
progression
materially
##pps
##usters
##arium
shack
thriving
138
pablo
##buds
##63
rooney
vienna
masks
bere
##just
seals
restraining
reunited
disreg
flaws
##ango
palestine
disappearance
fingerprint
reductions
sanofi
policemen
traject
fraudulent
emphasize
garnered
stoneman
5pm
##fax
##enos
##ounter
##edict
abstr
adele
crisp
bulgar
apologised
cyrus
forem
cancers
peacekeep
saddened
undefeated
surrendered
curiosity
gerald
##istries
wonders
nairobi
kazakh
bally
iw
popping
shaping
socially
mixing
hew
clashed
gloss
breit
misin
frankfurt
pog
##igs
rewarding
##stead
divest
armor
concentrated
wesley
gum
jok
##rina
attitudes
factual
finalist
trooper
scandals
fidel
demolition
xx
1800
##ickson
beautifully
boris
wolver
reopen
noozhawk
judged
##sterdam
therapies
feminist
relentless
##bies
##orah
##osta
recap
competent
sculpture
hond
keral
discred
sutton
avalanche
##base
predominantly
baghdad
rena
raleigh
dictator
pistons
porsche
##lyak
drown
devos
##aneous
damasc
demonstrating
dominating
hansen
poc
£20
##asan
invented
behave
denuclear
fries
prescriptions
401
##ycled
pairing
deported
rn
broch
minimize
gamble
##stick
hag
fashioned
stressful
aet
amsterdam
respir
##prints
crimestoppers
egreg
utilize
geographical
seizures
destructive
surcharge
hover
##acas
mustang
bulletin
hust
kd
##rent
##icism
##imental
nex
strapped
elk
uncomm
rescuers
disposable
dnc
nitr
##mings
##eting
costco
particles
analyses
deriv
inspections
avenues
cryptocurrencies
zanu
##uve
##43
leigh
overhead
##orship
##pleas
balcon
godaddy
partnering
empathy
grassroots
sioux
institutes
candidacy
exceptions
fist
##loo
##72
backstage
realm
##araj
tribes
cubic
prohibition
shap
passer
allowance
humili
umbrella
eis
sparks
##wayne
keny
accepts
salon
angles
##ija
heel
boxer
shrine
chorus
damascus
##icable
agr
travellers
therm
savvy
persuade
ohtani
foremost
##isher
alib
newark
marj
glow
discovering
dipped
hm
marina
##ignment
harare
laboratories
catalonia
spani
scat
banker
marker
predicting
composer
kislyak
saus
ort
##iper
viewer
santiago
indonesian
bore
nsa
delicate
##echnology
hastings
chichester
chal
pew
specified
responsive
certificates
reproductive
pw
wo
toled
sap
gerry
landf
termination
##being
greenville
altercation
wynn
whales
##soon
cola
solved
hourly
erosion
husk
jewellery
cosmetics
onion
##enny
academics
huss
##elia
homec
arresting
kerala
bac
clara
strive
roh
grandd
dare
rin
##urg
##essional
adher
##inke
premise
professionalism
watts
salvation
uploaded
gossip
jugg
##ono
##avid
##avia
parkinson
developmental
battal
frederick
reins
socio
yorker
responds
bentley
##89
abusing
unic
ministries
porch
marcel
##ubs
256
enforced
compatible
£30
##isers
strokes
compliant
slew
shutout
apologise
reinforce
buttons
purely
bind
##inational
##emar
webster
elvis
slave
specially
ranges
claude
##hacker
ashamed
framed
sochi
165
bonuses
buzzfeed
sans
shiv
creditors
pouring
disgusting
dessert
amit
taxation
jumper
inspectors
intercontinental
maggie
villagers
langley
distributor
airbn
acknowledges
showcased
unexpectedly
overwhelmingly
##gowan
caldwell
sears
##reports
##ensed
killers
310
museums
punching
autonomy
nerves
acoustic
voy
khal
tories
amer
##bern
1500
distract
refuses
koch
fishermen
2pm
tc
##odies
brag
multinational
trainers
victorian
freelance
##cane
andres
shining
needle
farrell
extensively
tonne
concludes
a3
rant
busiest
nursery
nawaz
##14054
optical
circular
kabul
storytelling
cind
mayfield
valent
squeeze
definitive
enthusiasts
##7414054
yacounter
yacounter7414054
##zes
##ensual
141
refinery
circulation
##guards
##habi
otc
bahamas
##hh
defenses
misuse
comfortably
utilization
dancer
standpoint
moose
circulating
embry
pharmac
dart
plead
angus
1965
engulfed
##amps
mcder
translated
khl
##hist
##escent
##uman
enrique
upbeat
homest
revoked
punct
anonymously
ebay
humidity
##ieces
vulnerability
sark
influences
mortar
somerset
kindergarten
egregious
ler
retention
obl
beaver
kelown
tighten
grabs
disregard
chunk
proactive
overweight
contend
excav
negatively
casc
stemming
blazers
symphony
toledo
crosses
tagged
staple
appropriately
mong
ruff
##ogram
gradual
negotiation
excluded
absorb
wylie
marketbeat
excer
fundamentally
predictable
sewer
gors
spinal
morton
tanner
bury
##olis
charming
authored
malta
intra
rejection
comprising
##iotics
inaccurate
airbnb
gos
##arty
brakes
arson
peps
##tingu
realty
149
robb
terminated
suzuki
wellbeing
avenatti
judgement
mund
##bot
dee
##ussia
receptions
necessity
trojans
cuisine
taj
##enza
bez
tayy
##liga
descend
remotely
irrigation
uncommon
##idia
forged
shred
extingu
peek
blitz
rhimes
reigns
mgm
skripal
##gro
rejecting
msnbc
##urable
untr
##assed
flesh
##official
typeof
baylor
antibiotics
zver
handout
metric
arbitration
thrill
amounted
pumpkin
defamation
nim
##tel
disgu
phel
poem
cooperating
imperative
ounces
unrelated
dude
##making
##amar
thereafter
stuffed
poker
preserving
aesthetic
blackhawks
diab
takeaway
grounded
prosecuted
ingredient
dew
##affer
faction
lure
compounds
emo
veterinary
nyz0
obstruct
hondur
amd
##goers
madden
entrants
coca
dissent
inherited
affirmed
orthodox
coloured
ruin
satisfy
mtv
##erting
##olves
sonic
1964
swims
##broken
racially
advertisements
algorithm
zverev
hos
pony
zomb
brant
successes
algorithms
##bold
##rej
countryside
foundations
valve
populist
##rt
##icz
##ilo
shale
roch
tunes
kidnapped
sik
realizing
spanning
swath
villanova
franco
architectural
crosby
thes
##andro
##ovals
underest
buoy
breeding
poles
glance
privat
driveway
maximize
xiaomi
kun
newfound
overl
greeley
combines
smoothly
lily
##71
prevents
feasibility
intoler
kers
stigma
trajectory
cj
ding
stopp
##ullo
insulin
ramadan
akron
##iga
##emia
indoors
compares
cracking
escalated
slater
mcgu
revision
queer
roses
collaborate
squeez
hefty
eva
farther
memorand
griffith
prevalence
lank
reese
##track
disprop
ree
##ifics
parkway
sentiments
##afa
harassed
abundance
lent
ashes
traits
showcasing
##´s
adid
mccoy
mahm
bodily
felix
tulsa
mk
staging
aborig
##avi
##azi
harley
mesh
subjective
warsaw
##iology
##orns
branding
respectful
criticizing
culpr
##aney
##berries
slog
honoring
##laus
365
bundesliga
stokes
commands
protects
undertaking
cheryl
neon
induced
capac
slovak
##radio
diagnostic
lively
communal
favored
hue
lum
shen
##ophies
emergence
enthusiastic
ener
slash
selections
sober
glorious
inspir
siem
internally
burlington
unfairly
gag
abdom
donnell
mighty
doubling
albu
eyebr
kenyan
icy
##gars
toc
caleb
logical
fastball
rebell
reacting
sketch
chrys
msc
##rc
defect
statues
divisive
moses
assessing
marshal
jennings
lincolnshire
erad
disrupted
rink
##urious
powerhouse
transforming
upgrading
karaoke
biod
ji
jarr
tread
onboard
footwear
mcdon
stationed
brooke
eyewitness
zion
##wen
##okovic
marvin
outings
parag
courier
sparking
exhausted
detonated
dense
pras
unpr
uniqu
unequ
arbor
arrange
pleading
torch
##vu
10pm
confron
tenant
ecb
acknowledging
behaviors
##querque
vie
wink
##cano
##fp
shaken
policymakers
freestyle
crimea
##ograms
flir
ceos
boliv
alexandra
nadu
fractured
respiratory
albuquerque
sabr
couture
##abi
spree
schul
edmund
rodney
parenting
perpetrators
barkley
moin
##urally
exotic
clo
franchises
unwilling
sandwiches
coyotes
tayyip
wto
imf
##elyn
disproportion
##wives
toby
##olk
grac
smarter
depressed
calvin
stormed
scotts
tactic
guides
postal
snowfall
lesb
syrians
##ceptions
freedoms
dhabi
##uled
trout
afor
downhill
belly
concord
madh
archbish
alcoholic
bronx
symbols
##pi
shank
throne
edges
refined
activism
bathrooms
lingering
minerals
hints
##qa
shim
indications
wiped
pend
##avis
demise
closet
oaks
##izzle
ousted
##itures
##icking
commute
inventories
fah
jod
barring
sadness
djokovic
anzac
mata
##dan
##64
alonso
frater
spiel
inquest
smallest
freak
freeland
##alous
deadpool
darling
##isley
specify
restoring
irvine
##writers
quantitative
bair
##hern
pats
influx
##iegel
alvarez
jpmorgan
yere
##bard
receipt
insufficient
##utory
##ementioned
##ricks
ecu
aforementioned
##city
alger
nationalism
systemic
burnt
protocols
reconsider
lumber
##bons
weaver
goff
excuses
finalized
tenth
ernest
lng
mama
##amel
##abh
phant
interrog
bake
nir
yacht
thigh
outline
##iche
monter
blackburn
pipelines
methodist
dg
##fun
whitt
shattered
##ifiable
2000s
baggage
h1
telegram
conscience
memorandum
slides
skir
gorsuch
kip
##atem
rover
redempt
pressured
sacrific
mits
sinking
cheering
paced
odor
downloaded
hypocr
diluted
poisoned
napoli
aetna
xen
##emma
##abil
##otta
revital
##tic
##armed
##leigh
crest
monarch
commanding
rizz
##iona
##ysis
psychiat
mcmahon
pell
tant
borussia
5m
sene
glitter
stockholm
historian
cumber
tangible
refreshing
cosmetic
yerevan
##mind
seize
##awar
pumping
##asth
prototype
potent
320
shrink
sync
laurie
adequately
cindy
cured
sulf
hemp
##iston
southbound
harold
curated
cornell
cud
q3
##cut
##elin
chalk
commended
downward
weddings
avoc
harr
mccr
4k
##opal
enlist
##hampton
metabol
fibr
wj
##idad
##ryn
##roads
constructive
exposing
chron
ivory
legitimacy
tunisia
foresee
timetable
pne
vaugh
##ido
shotgun
prosecute
berger
ti
##lib
##anz
defends
sword
sunrise
greenwich
tomlin
spreads
satisfying
kaiser
swinging
kemp
grizzlies
##fir
##frey
perimeter
workload
transcripts
boutique
breitbart
##isal
footballer
fortunes
lungs
surroundings
##estershire
##fin
statutory
216
pinned
ironically
preserved
##uu
wildly
sodium
heir
newsday
##biid
speedy
carolyn
eaton
carlson
magnetic
cpi
conglomerate
mh
##vance
ops
betty
##enched
mortgages
##iated
chilling
mang
microsc
lancash
##lifting
jh
rv
woo
##asket
churchill
thirteen
cottage
attain
133
##ggle
cbo
mersey
##ivo
exagger
##troll
readily
mcfar
guiding
intentional
issuance
bribery
##bys
##osexual
irrespons
gestures
contingent
ses
##rical
##ongh
groped
allerg
supplements
loos
templ
unemployed
clifford
meadows
sanctioned
##hift
##bilt
##isman
atomic
##osit
readiness
##offs
enjoyable
atmospheric
##ocation
parcel
139
vanilla
1966
bunny
kob
teaser
msp
sse
overc
##ollah
weston
eclips
escalate
redevelopment
cuc
exited
earl
mechanics
cfo
parameters
wak
##eye
famer
varieties
unsett
carlo
clarified
casualty
smuggling
brittany
extradition
##gies
withhold
chaired
maxwell
ribs
bick
kins
rl
##des
irwin
crowned
##enzo
herrera
carmel
libyan
bullied
papad
abbey
disqualified
gently
rematch
northbound
##worthy
gentleman
weakened
hutchinson
eh
tighter
tara
gunmen
practiced
applicant
deduct
fulfilling
kissing
privileged
norton
lawson
explosions
vw
quiz
lasts
derrick
odi
nicar
impairment
mitigate
fry
nvidia
seizure
inception
une
##ogg
wraps
proposes
dishon
illustration
knoxville
lago
vag
unusually
discontin
estates
qualifications
wilmington
klux
overlooking
pardon
santana
surpassed
hort
hitters
airing
builder
woodland
imagery
ruby
upstairs
dz
tib
prow
trac
cena
lur
##sein
colbert
specifics
##avez
tomato
texting
foam
backlog
##iferation
spieth
embiid
schwart
colo
fallon
cait
progressives
livelihood
rih
impart
metr
prosecuting
browsing
thugs
twisted
##actic
savannah
scorp
tapping
pert
charism
instinct
degener
shuttle
vietnames
filmmakers
boulder
renaissance
vietnamese
gunners
approvals
1960
jeopardy
archbishop
##pes
regrets
instability
suscept
latino
mandated
caregivers
##73
##elight
##idan
spoon
##eyer
gloria
passive
varnell
cooks
promptly
katrina
graff
explores
homered
3000
dwayne
coh
volunteered
adjusting
altitude
bounds
render
wb
bishops
contamination
chavez
drif
endure
celebs
robotic
relaxing
yar
syner
mcgowan
homecoming
##hra
tril
aclu
crumb
impending
##oxide
volcano
understandable
bernstein
comparisons
scouting
lancashire
wigan
##onte
possessing
mattress
protested
##kei
pads
zambia
420
db
dong
ned
ches
##ologically
raft
probability
elevator
dand
intu
coo
centennial
allevi
misled
whiskey
tj
ingram
foil
borrowers
thornton
apprentices
utterly
marines
relates
assam
misunder
paddy
pavement
falsely
sult
##amon
parap
exhibits
ritual
guerr
cels
##hole
herds
lifes
reaffirmed
orphan
flame
avid
engineered
occupy
mentions
cbd
fiat
nif
penned
spectacle
##kirts
##fu
##user
billing
legalization
rallying
translation
puzzle
##irable
##andra
interrupted
patio
gerard
rumored
buns
##arus
advises
objection
##98
shaz
##00m
##icked
waterloo
campaigned
bites
epile
luxurious
breaches
vanderbilt
anushka
##kal
deed
crushing
##quest
bbq
pneum
backward
centric
guatem
##cliffe
affiliation
pioneering
wrestlemania
hardship
circulated
manhunt
aboriginal
hoy
carb
coats
##enews
witnessing
rentals
chrysler
retaining
rao
typo
easiest
biom
preventive
dragging
clarkson
##jri
monsoon
undergone
480
counselor
inflammatory
##journal
cara
parr
swamp
landry
bowie
biased
chemotherapy
werner
disciplined
passwords
admiral
moines
senegal
tipping
shak
firmin
roundup
petitions
##lamation
blankets
flawed
kogan
##hel
ans
mee
petr
patches
dalton
plaintiff
##sty
ridgefield
ribbon
##lift
rauner
demonet
jonny
johans
moll
##inness
##sted
clue
africans
tanz
asserted
##fred
##ayo
groping
schiff
kicker
counterpr
awe
##pers
##51
chopped
arun
##mins
projecting
updating
nikkei
indies
capita
booming
burd
waving
##itan
ons
similarities
illum
ivy
stevenson
goth
##mott
slaves
182
augmented
disappr
fren
phases
proclaimed
cleanup
remembering
cummings
congregation
##cal
tha
invisible
flake
roadside
deepest
##ijah
outskirts
celsius
vid
za
oscars
undergraduate
vom
##storm
severity
bugs
jacqueline
dt
lash
##lia
##orial
##gae
tackled
lavish
colombian
ricardo
rooftop
alibaba
vivid
flurry
discomfort
baseline
lambert
dazz
arv
replies
##ozone
lads
comcast
accuses
##insights
fielding
professors
paula
gregor
boro
coutinho
honduras
backwards
seasoned
slug
paypal
waterfront
proceeded
sidney
omaha
consequently
fulfil
boe
continuation
specializes
durable
quadr
aster
bung
##lair
haas
##abee
parc
surging
spacey
congratulate
accumulate
kp
sig
chiang
manor
makeshift
venus
bolst
empowering
maneu
kazakhstan
balk
lime
rost
##idu
calder
violates
##lem
therapist
exploited
##inqu
roadway
ideological
attribut
alpine
pint
##olia
notify
##apor
carly
blows
operatives
collegi
bowman
##zzi
tightly
hooked
daytona
kom
peyton
regrett
scranton
allegiance
indexes
pederson
peanut
lue
wanna
suk
slapped
jealous
creature
feeds
discounted
##core
sax
unveil
##repres
solicitor
ely
tart
##obs
succumb
mural
lifts
pathway
cinemas
##ieve
##itez
##grove
everett
slugg
coronation
tucson
##jriwal
dowd
honorable
drums
asth
yel
chili
formid
boil
127
humour
revived
bihar
jonas
analyzing
tampering
rampage
grilled
expelled
lego
camel
benefiting
bowen
garros
raping
escorted
scorers
sneakers
weaknesses
##lessness
cameroon
liable
ruined
wicked
dillon
sous
##58
trunk
##acki
cro
meditation
rowe
qaeda
tanzania
bored
dome
nix
##log
##enary
unear
gramm
storyline
turbul
hurry
rosem
installment
crypto
pigs
orthoped
bothered
adr
manley
##actory
balances
battlefield
golfers
yak
##about
leasing
grape
##grass
##amphet
descent
1950
punches
balcony
wipe
##thal
rechar
franken
spells
peck
alum
chrom
consisting
equaliser
repaired
expenditures
negligence
taco
##kata
152
width
journeys
terminate
await
cyclists
dwell
##bear
asean
##answ
reminis
possessions
##atorium
pickford
professionally
entrepreneurship
fibre
hank
zoe
##mk
##beck
##quette
strings
empowered
energet
kau
tate
##hed
##wid
##las
chung
##uming
ems
contributes
benitez
mckenzie
barre
simone
wilderness
krish
glamorous
ome
##08
offline
bluff
smoked
reth
mapping
solomon
julius
zachary
firmino
fad
caret
depress
battered
encouragement
vinyl
toilets
cambodia
formidable
lax
pamp
##bag
plas
crescent
argentine
misch
##2017
lengths
cyprus
fronts
vague
##oice
sao
##agua
exeter
blat
##uchi
avon
147
authorization
fearing
weighted
##ente
carc
crem
methamphet
atroc
annoying
semiconductor
battalion
##aan
progressed
guyana
inherent
kimberly
kieran
emoji
balancing
kessler
tsa
##atisf
unhealth
equation
carpenter
unauthorized
atkinson
137
tvs
aspiring
lafay
spielberg
knives
finch
airways
chooses
dudley
henn
waking
##von
strongh
registry
artif
##appe
vaccines
nrl
4x
##bags
##gt
copied
accumulated
bombardier
3s
kand
orb
##reeze
surreal
granting
ellie
resisting
##itating
##adays
daytime
hussain
adhes
midland
promo
##ukes
renee
1947
teddy
collegiate
bert
hier
np
ranger
##ighton
strick
colangelo
averages
granite
razor
faso
abnormal
cly
##herty
meyers
nowadays
futur
sincere
semitism
##ackers
grin
captures
slumped
lafayette
cah
mab
recycled
flock
168
urine
cholester
fellowship
woz
valuations
snp
honesty
daunting
##62
scots
austrian
contributors
warranty
lauderdale
##ilee
uran
painter
rhodes
restraint
astronauts
monopoly
kejriwal
bayer
recalling
baku
laptops
##icacy
consensual
keynote
##cloud
khloe
##hua
boone
staring
millenn
madd
shallow
expedition
##birds
roe
sanitation
##ipei
rodrigo
reinforced
burkina
##ked
ulster
restraints
570
newcomer
wasting
tristan
herd
confined
inflicted
sexuality
remarkably
coatings
wizards
estranged
pn
##mt
##owell
suites
canucks
wray
politic
drainage
##edonia
platt
148
131
losers
modeling
mentioning
royalty
forums
prostate
provocative
sasik
apprentice
aided
pk
cron
##velt
rollins
aziz
outdated
taipei
curtail
obstacle
brochure
gour
goat
gra
openings
scoreboard
barrow
competitiveness
pogba
rihanna
cholesterol
qc
councilman
275
tacoma
indecent
shazam
dion
patty
mcaul
gunn
cheered
logs
tasty
mickey
bian
guru
apples
brewer
eldest
reassure
chopra
##mand
unansw
invites
layout
optimal
unleashed
repeating
amesbury
totaled
versa
reversal
yonge
cakes
higgins
jade
haj
##oku
chandr
forbid
nec
textile
advancements
reminding
strawberry
poultry
lugg
lenses
obr
sofia
3b
nina
stacey
fridge
drastically
coven
proceeding
bravo
cac
ipl
mri
sis
lookout
signings
theatrical
indefinitely
invitational
coke
##cz
##full
##ecure
##imi
spilled
figuring
automaker
narcot
seamless
##olu
##odo
seism
brunch
groin
baron
infants
namib
diverted
qualifiers
diagnostics
adidas
api
opting
slept
rubbish
kuz
paragrap
jax
##cm
chipped
elijah
##pring
classmates
scream
groundbreaking
gregg
spaniard
jensen
proxy
enlight
##ongs
payton
ideally
pains
aless
amc
overst
sitcom
transferring
tastes
##keeper
rehearsal
glacier
mcauliffe
narcotics
aad
##96
emery
demo
kern
waz
##mor
reposit
crises
simulation
moh
peterborough
aleks
cider
dino
forc
##estation
glendale
generates
melaye
supplying
exercising
rajasth
exemptions
##04
##orie
##inkle
##anni
factions
messy
destined
catastr
merchant
redemption
##lc
marble
##ulton
schwar
airborne
paints
annualized
perfection
sounding
resurrect
518
screenings
splits
dickson
roc
reim
sak
tray
servant
slick
vale
136
israelis
wilkes
##eatre
replacements
osborne
iphones
153
debit
nickname
splitting
cruiser
fuelled
deng
vonn
toggle
reit
fragr
outlaw
156
barth
introduces
buccane
disturbance
tav
##atri
hai
##umbs
deplet
##azing
heroic
patrols
mckay
luggage
wiggins
##asion
orte
marian
recep
swipe
methamphetamine
prints
offensively
cripp
heartbroken
naomi
kolkata
siege
renegoti
stoppage
fug
jog
##felt
pro32
malaria
rubio
deliberations
sheeran
disgraced
hormone
stainless
lill
##sbury
exh
seaw
medina
hazel
renovations
descended
##hardt
unanswered
##eri
schu
footsteps
loft
jaime
inappropri
leaking
mons
morph
pretend
bedford
deduction
columns
lush
##girl
condo
variation
summoned
novak
distributing
fouled
asthma
winery
rightly
businesswire
suffolk
scrum
consulted
diamonds
stringent
unhealthy
doses
mens
wk
##gre
skyr
lauded
mcin
overdoses
ortega
##code
##ombo
plight
compuls
##ibo
151
motives
cheat
melting
bells
dissem
tahoe
midterm
##assing
swir
hussein
houth
rwanda
##odel
carmen
involunt
bowled
kimmel
innocence
efcc
penc
##cely
##atra
rotary
breastfeed
anatomy
linger
bras
halep
ballroom
lyft
belongings
icons
##walks
spacecraft
kear
##elu
stacked
trophies
squir
destabil
eaten
tavern
proliferation
rouhani
manipulation
wozni
einstein
myri
##web
soundtrack
occupants
biotech
bale
tt
##atement
chlor
outages
underpin
sunlight
volunteering
shadows
astonishing
olivier
mbappe
ipswich
dary
goodwill
embattled
rizzo
cue
mou
fridays
ama
commenced
administrations
interviewing
pumped
sasikala
kale
##ensional
depre
ahl
dimension
ia
thu
##inth
208
upwards
##axton
intensified
belling
corm
frem
selfish
texture
866
0800
mackenzie
gambia
traffickers
albania
gloucester
hq
nish
##urances
sparr
spears
##ksh
varian
cinematic
##vic
##ultural
confisc
predicts
collector
jurisdictions
rajasthan
heidi
obese
melanie
hoover
gearing
phrases
lashed
sz
ym
##iently
hectares
landlords
zid
banana
rainy
scheduling
randomly
referenced
nicot
##usp
screened
projection
godd
bowlers
advocating
measurement
sincerely
inspirational
oj
pike
forge
shor
hasan
stras
underwear
143
casinos
quartet
riyadh
fictional
irresponsible
elm
thrust
morales
shortfall
rounder
235
ronnie
shrimp
surgeons
bundle
wielding
canton
rents
##acion
repub
herbert
dealings
sensible
sleek
princeton
julien
financials
extrav
spiral
£50
sponso
cove
##gren
##echkin
sustaining
sibling
eduardo
meteorologist
andersen
hanc
lazy
trot
plumb
deficits
kershaw
inappropriately
sasha
154
candles
rak
##pace
##alone
shire
belts
angelo
snowboard
referees
router
fade
clinched
1963
horsepower
blooming
hary
##wolves
posture
gardening
baskets
displaying
consultations
undermining
£9
##ande
marx
drastic
specials
cyclist
hsbc
chattano
huskies
mkh
yelled
##store
##antino
longstanding
haram
calip
unspec
renovated
friedman
zhang
##advert
##osaur
friction
£100
aliens
nutritional
abruptly
arsene
##erved
myr
142
watering
224
capitalize
frenchman
utmost
divorced
gina
##aic
whirl
reclaim
raided
limerick
urges
290
selfies
lii
chamberlain
jaguar
gyn
##isans
laguna
merchants
specs
stockp
germans
miserable
dictators
dentist
neglected
abolish
zidane
rous
tok
roose
homework
dani
laurent
nicaragua
realities
commentator
overshad
mercer
lavrov
##enhagen
##dahl
marketers
##eshire
strategically
##cker
naira
inhabit
faw
##eday
stagn
resent
inclined
gluten
lieu
daesh
prevalent
susceptible
ting
ubi
##wig
polo
breached
overdue
vog
marty
cables
bully
withdrawing
relocate
outscored
suppose
discard
conducts
westbound
trusts
archer
omn
mdc
motorcycles
embarked
knit
concession
cites
stripes
coincidence
trinidad
oecd
apac
headache
waivers
microphone
boasted
pb
wagon
##cht
sums
adity
blackrock
ambrose
ls
##esis
coma
##ppo
policeman
diary
veterin
unpop
928
sabot
dmit
nifty
##nant
##jw
inducted
##atural
obsession
rhinos
forestry
intolerance
unspecified
jio
rr
conrad
portfolios
fascist
intimidation
sampling
patriotism
grievances
##gc
prag
accol
commend
paras
parental
##crowd
campaigners
samar
sheridan
cerebr
theatres
##sports
downgraded
buccaneers
brighter
becky
idlib
rae
logging
rss
embarrassment
mclaugh
energetic
bauer
iz
sings
spurred
refiner
sexton
emergencies
sparkling
discourse
crossover
arrog
loser
macau
ridley
euph
stratford
granddaughter
##fb
operative
clearer
hostage
##ophys
gmbh
646
threads
spartans
daly
##anity
weiss
bystand
drowned
bled
suppress
subt
resting
aubame
accelerating
hotspur
cite
kia
objected
supermarkets
diversified
praising
inaugur
immunity
semitic
hk
yi
##zn
spine
copenhagen
recommending
aubameyang
##hub
arthritis
159
mornings
looph
smackdown
##asketball
rouse
weimer
traces
unofficial
profiling
134
approx
1962
alternatively
##onymous
refrain
betsy
marjory
##anto
##ecki
dias
occupational
homeowner
##film
##59
upr
upfront
strides
actresses
dynasty
disneyland
ibrahimovic
auss
quar
blister
247
javier
exporters
vegetarian
kendrick
##lists
chriss
yankee
botan
msci
wester
neville
##gev
funk
volt
assertion
lester
##iem
timed
edgar
generosity
geographically
seventy
schwartz
cougars
downturn
headaches
bumper
dvd
##ople
imperson
kee
snoop
gunshots
orchard
omega
carne
mistr
##ayan
haunted
overb
edwin
separating
galway
virtue
unveiling
apprehended
dix
fg
ratt
##hap
##tree
spik
twent
damian
badge
diy
fiery
portraits
##ophobia
##oi
spun
monet
formats
shrinking
mitigation
sergey
inherently
ovechkin
variations
roosevelt
kre
kud
##pill
##onna
##atical
wein
##umi
repet
technician
heartfelt
frankie
manifesto
huckabee
merseyside
hancock
##lb
sage
upsc
blasts
146
harding
440
installations
validation
jait
landfill
pon
##iao
croc
gund
handsome
hoax
avery
acceleration
leonardo
hannity
exceptionally
landlord
lesbian
kare
##enheim
adhere
bred
arising
compelled
overcrowd
resolving
govt
arabic
supervised
chesterfield
myriad
##enth
benedict
counterfeit
ethic
condemns
evacuations
##poons
accumulation
amphith
sluggish
vm
denim
analyse
contacting
richest
dodd
nichols
unpopular
720
lansing
##chron
##akash
##ecting
##cross
gluc
slashed
planets
kelley
soros
blogger
stubborn
peppers
mclaughlin
jockey
##corn
sco
carved
subscriptions
classification
despair
eighteen
murdering
darker
hale
leop
populated
##baum
curtain
forecasters
stressing
##balt
sinclair
imprisoned
nutrients
fumble
##imen
##incts
advertised
coco
screenshot
kelowna
pits
sina
iso
perc
peach
footing
electorate
benton
papadopoulos
hig
expands
studded
clubhouse
panor
drummer
vpn
##200
sperm
addicted
smiled
bangal
hazards
oncology
##wave
bran
norwich
basil
doctr
deborah
##ynia
royce
mudsl
havoc
nuc
##mob
onions
denounce
reasoning
555
skinny
tumors
bleacherreport
paraphern
vy
##fold
lantern
rashid
mv
##ombe
tyre
converting
penetration
triangle
shay
nood
goodness
mondays
toro
325
gamers
cboe
horton
lough
nud
##imo
shun
grays
strauss
derbys
measurements
squads
wizard
obrador
buchan
excel
lima
manufactures
welch
pursu
lynd
psychologist
srin
coordinate
shat
##estr
##umen
phosph
178
ministerial
detectors
scrutin
foy
##ambi
abst
cllr
rejoin
hubs
brigitte
jeopard
diligence
ego
##nels
marketed
gubern
rugged
piercing
refunds
rutgers
hath
hipp
mous
quitting
gods
marcos
paraphernalia
pbs
sob
thru
showtime
authoritarian
combo
impacting
mandalay
lesnar
mirrors
diocese
70th
cellphones
commercials
##ellan
##orrent
declass
##ieto
levine
souls
bain
tds
uv
unjust
theirs
img
##ometric
visibly
##played
pupil
sacrifices
vicinity
nails
uconn
vans
##hog
##akis
resched
sloven
proph
##aldi
unsur
blogs
colonel
meadow
kod
tox
stewards
societ
forgiveness
malls
rendered
gdynia
frightening
slices
gore
nes
##bands
winding
favors
negotiators
728
birdie
bait
lhp
jaitley
mce
##hler
##elect
##idel
##abs
gras
157
financed
eastenders
observing
cocoa
plateau
aleppo
evangelical
##eliness
##etown
onstage
haiti
kalan
trademarks
helmets
meltdown
derbyshire
gubernatorial
hepat
spar
businessmen
galleries
muj
criticize
permitting
honorary
geared
##uw
toes
clown
##onga
debated
340
yielded
bonnie
intervened
arraigned
telescope
##hills
##arella
reich
cobalt
##grown
flipped
goldberg
jerseys
ovation
haryana
ppg
##bly
thy
##orously
peac
mansfield
puppies
mcfarland
boko
governed
375
hawking
renault
freddie
uzb
##arious
medically
mccann
discoveries
370
ryanair
ninete
gibral
drunken
pamela
sausage
phantom
b2
nai
worthing
roaming
##phere
understandably
citi
olson
dimensions
exceeding
uzbek
flare
bogey
00am
accusation
1948
dwind
molecules
vodka
practitioners
horizont
abstract
bios
murderer
priests
iguod
iger
shiny
intox
apocal
underdog
childcare
denise
bottled
adjour
##chemical
pyram
tucked
mch
grud
caracas
regen
bett
matrix
considerations
bridgeport
vastly
neutrality
triggering
rancho
cheerle
cushion
prejudice
lorr
mau
sj
tilt
##hm
##ierrez
waits
##ukh
borne
batted
raven
##urp
barron
##insky
fixes
whistlebl
sultan
##ror
##etter
##usc
incub
hyde
abdel
rampant
mackay
fuj
vying
als
visually
internship
faa
surrog
istock
dundee
eats
gid
macy
ariana
##avers
elias
dui
tug
bravery
remedy
fourteen
protester
##burst
chickens
tumbled
configuration
pesticides
lamented
##pod
##isen
##uli
blades
sixteen
lebanese
##aru
##ecured
##ells
##ubu
##erica
subsidy
gee
hated
lace
vt
##pow
token
##iffin
multic
romero
psychiatric
pulis
ceasefire
nostalgia
##entin
##allah
transc
obit
artillery
snag
balloons
merits
constitutes
unsecured
demolished
nys
##imated
alicia
aces
abl
getaway
##gett
slipping
aviv
245
identifies
checkout
almond
malone
affordability
analytical
awaits
duplic
lunar
mcdermott
ppp
##erman
##icidal
repurch
statistic
paisley
tomas
pageant
garda
snapshot
gutierrez
glamour
ecuador
hose
hex
##oski
schw
corona
fairfax
alek
unfolded
discriminatory
##fessional
##aden
highlands
handmaid
##plex
pena
vacancies
horrified
lobbyist
preschool
needles
referral
influenza
manson
suvs
humphrey
cayman
cylinder
£85
##ustomed
##ibu
daylight
skew
incremental
judd
packaged
protestors
noticeable
smiley
maguire
intoxicated
sok
##ecs
chess
marque
##ripps
confession
bribes
sevilla
detainees
graffiti
pneumonia
boll
gend
nm
depicts
blueprint
jacques
rodeo
newcomers
unreason
fiji
jans
##eet
buenos
capitalism
floated
rigid
guatemala
##86
##dal
##gart
thief
rested
recept
rollout
senseless
##monds
affiliates
shahid
spicy
mathematics
iguodala
##map
##dn
backers
assurances
pubs
2027
faulty
exhibitions
janeiro
scanner
lund
ypg
##ogh
##omatic
alloy
insect
organising
sourcing
selective
ensuing
fitzpatrick
riots
bureaucracy
scrapped
##atal
##atoon
beir
shear
##awat
norris
##plan
##shed
vacancy
someday
fulfilled
bourbon
lennon
gong
lilly
##wash
dover
playlist
##awan
179
##ueling
malt
rocking
dnf
chattanooga
baff
hv
vc
##othe
slope
slipp
aires
metaph
llp
##liners
bookings
replaces
spinner
colonies
enquiries
applauded
##assi
blended
wrapping
305
loof
scrimm
promoter
handicap
##unts
strikers
demonetisation
orthopedic
pursuant
cinn
vil
inadvert
exits
insured
module
legalized
42nd
neurological
shirley
volcanic
ortiz
bangalore
scams
partition
accessibility
italia
resisted
airstrikes
uniquely
gibraltar
roomm
annapolis
leftist
payday
rebounded
kaduna
swimsuit
aam
##arte
incurred
slack
listens
tributes
slogans
ymca
nx
oman
priy
chak
flashing
desirable
correa
tuesdays
holden
380
vouchers
##qv
alec
206
drift
##pted
emission
blackpool
remarked
binge
##acp
##adors
canvas
coated
modes
translates
bharat
##boldt
warwick
focal
loyola
btw
reproduction
attributable
sek
##ongo
downed
redsh
blackmail
honol
wilkinson
atlas
##ogenic
variants
billings
connell
originated
torr
sweepst
fayette
inexper
zinc
##arin
pri
chast
combinations
##hany
illumin
ombuds
overcame
cleric
heavier
poorest
interpreted
benson
##isch
stealth
humboldt
golfer
##lane
##itus
nearing
europeans
unravel
creepy
stereotypes
falk
hab
suisse
glowing
fd
##orman
mins
accessory
scarborough
dimensional
ryder
dp
gases
yan
seab
moreno
drawings
toni
attracts
luncheon
scarlett
ngos
tortured
scanning
##orpe
goers
proact
sonny
supers
##iciently
bailout
hoops
tonya
compensate
##lieb
relocated
hutchins
caretaker
##yards
lara
frontman
totaling
contracting
amidst
medalist
marriages
inconvenience
honolulu
cess
quota
defines
systematic
custod
garland
outraged
groceries
borrowed
revisit
kai
wired
##imet
collateral
matchups
richie
merge
merry
nominate
hawth
£15
lonzo
caterpill
ignorance
prasad
nause
##yk
exile
underage
fearless
karan
spirited
sweepstakes
nia
tad
##breeze
scripps
pars
janata
distances
irregularities
rebellion
gf
reiss
##ouncing
modify
extinction
231
novels
zoom
##lene
reapp
extensions
beatles
syrup
stalls
motorsports
quarterfinal
pis
##zhou
##erry
##uta
prefers
genetics
##ccfull
starr
streamed
176
mustard
100th
deadlines
adtechccfull
eyebrows
adtechccfullstring
cors
##iltr
remorse
tarantino
illusion
maurice
landslide
racked
##atus
##endi
ella
labelled
dominican
collaborated
provisional
paved
bergdahl
##church
pertaining
donuts
styled
timberwolves
softer
nephews
kov
haute
dray
clinch
lucia
incompet
##ipation
blink
eurozone
restriction
advocated
khalid
altuve
sulph
insurgency
cerebral
kalanick
rift
##cry
##aghan
orn
endurance
markers
prohibits
implies
whisper
posh
reflective
watershed
tearing
trilogy
medics
analysed
##izzard
cowork
stimulus
huntsville
refurbish
quirky
dane
##oct
spacious
unpleas
homage
rebounding
accomplishment
scrambling
jasmine
catastrophe
nano
##made
adul
##ogi
becker
insecure
efficacy
submer
singular
walters
buzzer
bard
xf
stard
elusive
harmed
shooters
homicides
progressing
kluber
rach
rows
##omer
alam
spook
insects
ranbir
greeting
slovakia
vows
##erity
expon
40th
optimize
dwight
seminar
unsurpr
kyl
##pre
clam
##ibune
waived
curse
venom
737
deploying
levi
implant
fouls
genesis
vineyard
chaffeybreeze
tandem
artifacts
##hil
weir
##ogne
demean
entirety
legislator
optimum
privileges
cullen
wozniacki
yun
##yt
peripher
workplaces
educating
##uggy
freshmen
ps4
mergers
##ophobic
reeves
unilateral
reliant
guang
blackberry
hotline
cornerstone
disclosures
rookies
unstable
mitt
##mac
##comb
##acio
spouses
depicting
infiltr
##afi
caste
##aji
plotting
millennium
ombudsman
950
vou
##nuts
##cul
##300
##ensible
exclusion
daisy
pulp
sleeve
repository
##52
##green
hostility
woodward
punitive
wrestler
accompany
stamped
authenticity
bps
claw
elites
approving
dams
410
scales
transmitted
disorderly
cassidy
zimmerman
brawl
denuclearization
bins
cisco
##inter
remake
wrongly
horgan
wakefield
adjourned
##cap
##360
breakup
viruses
godrej
widening
catalog
brutality
chevron
unintended
rotten
signaled
##coe
fleury
confronting
atrocities
##iotic
##dogs
##chin
arose
appell
safest
mcman
divine
cupc
cooke
gardai
mally
##jun
##arat
beech
##esse
##ignant
scher
secondly
##psy
hearted
pml
sensing
ashton
enrol
foley
froome
cif
##iso
remanded
thanking
replicate
zl
##oine
queries
##ilda
##velope
172
britney
fueling
compassionate
unpleasant
##uent
anil
envelope
doomed
courty
static
housewives
creations
##appa
mclean
physi
opposes
##ewski
lymph
synthes
1945
gottlieb
scramble
hwy
drowning
duc
hens
accustomed
esk
167
irony
holistic
admire
definitions
exporting
disturbed
holtby
discredit
piled
pasc
inval
facto
utilizing
sleeves
chanting
grammys
##fy
withstand
shaky
grues
imbal
query
vald
swear
researching
collaborating
mourning
pearce
##ivision
spam
##annel
advertise
maternity
regulating
restricting
contraception
persecution
plank
clamp
carm
315
warmth
hendricks
txz0
tissues
dd
dizz
##hop
##horn
##enton
##utter
clergy
guiller
endorse
sexist
barrie
tumult
adaptive
disagreed
chit
joanne
geological
845
coordinating
tolerated
romanian
mogg
simpler
5k
bse
curs
wires
zam
trous
clair
teased
boz
marches
limitation
inspected
scaled
gaut
earns
interacting
axis
bubbles
roasted
chow
unborn
peril
chartered
bests
standalone
garn
lifeline
samoa
concluding
complimentary
explorer
cpr
gush
##usable
##ifier
denom
312
maternal
hungar
unload
##heed
embold
scenic
capsule
ekiti
counselling
dine
sto
##think
arpa
grains
303
departing
deprived
lbs
##oco
##aval
presby
15pm
45pm
extraction
routines
fulham
butterfly
sewing
recounted
oasis
##mh
##was
canter
upton
injected
gatherings
assumes
leveraging
##human
guillermo
##oza
##iffer
unex
outcry
scans
lawful
juliet
ringing
bouncing
johansson
sousa
indices
304
ageing
pusha
hallway
trailers
sudbury
diversion
substitutes
unsurprising
kart
demarc
autograph
gallons
indirectly
isabella
mistakenly
fulton
ping
raging
##eid
##mit
interval
assemble
depicted
juic
mcne
superf
fatality
lockdown
clarence
buckingham
bucs
bbb
enlisted
straws
propelled
strait
enforcing
drafting
aspen
throwback
mcdowell
bingham
unequiv
bia
ecc
wifi
drizzle
breasts
employing
refining
##afone
ridden
fleming
miley
quantities
confidentiality
ultras
vandalism
mccormack
dap
sars
onset
##igor
brod
valleys
4500
naacp
fertility
tenc
##jk
##etric
torque
acquitted
foolish
thesis
refineries
uprising
##orph
aca
swat
##ippy
ejected
leases
speculative
##unga
divisional
surfing
otto
cheapest
pillar
dah
zah
plots
213
##ycar
pinn
pulitzer
mckenna
##itaryan
scooter
tbs
yus
##emate
##alke
waterproof
naive
stephenson
wsj
vodafone
hepatitis
209
northampton
landown
rammed
exhibited
wearable
daryl
##gevity
latt
##mount
##unity
adren
insulation
jude
414
paving
tatum
##biz
##aday
hezb
##angled
1080
relevance
worthwhile
poems
hinds
chatting
mkhitaryan
anita
ada
##ibes
useless
lyric
hateful
carlton
fracture
sinai
niece
##uh
stella
reeling
mayer
scha
mcle
freshly
elevation
hesit
rendering
versatility
auctions
cerv
upstream
##bro
##bride
thursdays
rotating
ebbing
alleviate
##dia
##olls
apes
earmarked
genome
corr
deterrent
occurrence
gdpr
merrill
oled
##01
##kw
aram
##anco
##urrent
camar
achilles
tripwire
colourful
epilepsy
vall
##estones
11pm
procession
217
executing
##working
ignited
brightest
papa
salvage
##coun
##zon
the22
##esses
##asonic
barric
summar
generator
accountant
osin
commanders
##tles
explet
##soff
strains
171
vanity
positives
celest
bezos
##wer
anom
cheshire
signage
slots
processors
diets
romney
wiseguy
##patient
hl
prank
brits
##ynski
chairwoman
delaying
renting
delightful
##ahahahah
fraternity
herdsmen
invaluable
gus
morne
##zen
neb
suh
crank
overcoming
receipts
freezer
solitary
choi
redeem
bunker
hezbollah
dpr
ruther
zo
##icter
suicidal
plough
termed
214
girardi
honours
environmentally
##dragon
rubin
pledges
ozil
elephants
turbine
##building
tuss
ubs
##bier
##cts
##uti
##actors
appra
goodwin
geo
livingston
ambig
oversaw
preparedness
mlas
elders
ethnicity
convertible
caesars
##fra
##anath
brenda
perks
herbs
commuter
barker
sena
lyons
##friends
appreciates
enhances
yonhap
superstars
ail
##iu
##ainable
204
soak
speculate
senses
##oshi
618
dietary
bulgaria
eternal
jup
sow
tainted
##vering
willow
cohes
interrupt
interchange
decree
moratorium
228
awake
##meh
dusty
1930s
enclave
geoffrey
assailant
doctrine
submerged
##gol
##arp
##olent
accu
##ettle
tripled
escort
towel
misinformation
##pel
signaling
162
tanker
cnet
dashboard
plaque
ropes
raffle
sisi
##inges
stained
brim
##oger
charger
homosexual
greenwood
candle
predecessors
disagreement
mf
##aus
##wy
arb
evenings
boon
restrictive
tattoos
gronkowski
wiseguyreports
rasp
€1
##ienne
unused
seren
##contr
##balls
chatter
robberies
barnett
replica
shinzo
grieving
cfl
##olin
turtle
tunnels
umbc
vinegar
##vasive
peacekeeping
skyrocket
pian
rx
clint
offended
##ibus
##ressive
artisan
changer
boyle
chapters
prioritize
umpire
mallya
chino
dept
guinness
demons
snatch
citrus
3006
resigning
saskatoon
commemorate
upstate
pesh
##lass
chatham
goa
justification
fedex
despicable
fingert
insulting
keller
sass
##osl
clif
1900
planner
hopeless
retirees
pregnancies
assignments
relieve
poth
##ww
usern
roche
sunni
shorten
vegetation
bharati
kram
anad
macc
hayward
ambassadors
reversing
dictate
unrestr
refurb
kes
notched
incidence
blames
schl
speculated
viability
##fields
challengers
cereal
earnest
nal
dutt
nagar
pesticide
uptick
plumbing
carnegie
jj
##andowski
##ubishi
stricter
medall
penis
melody
dimitr
galaxies
relocation
lutheran
ceremonial
presbyter
dull
dex
endanger
turks
burge
malfunction
emerges
scrub
julio
sophia
longevity
relegated
lec
207
drilled
strow
mayors
downst
##center
##uchel
##ilyn
maest
midtown
captiv
awaken
crossroads
doorstep
coward
##breaks
kry
pem
##haven
##57
braking
gameplay
aws
queue
##zzy
ranged
ravaged
breastfeeding
kitt
cheng
##flows
tracker
dinners
trendy
inherit
resurgence
parsons
scrimmage
kph
##utan
fintech
propel
superm
petra
stockton
checkpoint
magnet
creep
ayr
##image
##osted
emir
##weigh
swelling
eastbound
clarification
abducted
podcasts
avocado
seismic
vow
crust
##burger
complainant
rahman
swn
overr
##ollen
gunned
beneficiary
macedonia
hawaiian
margot
diminished
yogurt
##quisite
mitsubishi
rue
riz
##oso
##vester
169
organise
spokane
vargas
232
calmly
sturgeon
pomona
depreciation
upscale
unreasonable
fences
##ilot
lefty
adler
salesforce
dispers
influencing
##zzo
kilometre
biotechnology
cet
nis
taked
##ulary
abide
protagon
tapes
vulnerabilities
paso
aesth
reminiscent
vat
##sburg
##rim
##gher
doe
strap
servicing
barns
handler
mrfr
amazed
saras
owes
ecst
urgently
constituencies
rethink
caterpillar
accuweather
traced
##ologic
panch
maddie
continuity
macroeconomic
erected
ariel
repug
strips
waymo
insecurity
302
211
varies
narrowed
scaram
disrupting
townsend
pillow
shameful
brushed
cain
faded
gems
nath
##87
##wyn
##isance
##ecy
##ulators
editions
236
coupon
harvested
##rosse
sailors
stumbled
thak
##onal
##allo
unins
morale
226
giroud
239
countdown
karab
dreamed
shanahan
mika
##kit
##atin
menace
purge
scripts
lovullo
1958
feasible
liaison
1pm
dax
gould
##hin
##hell
##home
plague
##weeney
persona
##tenham
massively
sonia
pathways
venice
##frame
bachelorette
gruesome
gers
##cat
##eder
outweigh
playful
fours
ava
grader
undated
oslo
moonlight
snapdragon
narc
showcases
confeder
incorporates
staunch
js
kron
nxt
heg
colise
detached
tempo
##bajo
curator
advertiser
defenceman
brutally
cvs
deflected
ineffective
##allen
grinding
##bson
belarus
issa
champs
angered
etfs
sidd
bleaching
athleticism
kissed
hampered
sculptures
baz
ese
kul
##81
##aniel
toured
##andre
drank
sheila
##obal
conceding
competes
commentators
referencing
persever
organizational
downloads
calculation
zeenews
ptsd
crossovers
shankar
myrtle
dic
morm
##yo
oprah
teaming
visitation
##ventional
dreamers
rumble
##ratings
rude
exiting
incarc
manny
##assis
servic
remn
oppression
distressed
##tegr
kinda
automob
fortnight
stormy
dunham
bangor
cheltenham
consolidate
rudy
mammoth
taps
edible
insol
moran
juniors
##beh
domino
footballers
probing
woody
devastation
lacrosse
persuaded
astronaut
slaying
fills
kourt
allah
monsters
##rien
merid
outsider
hesitate
temptations
spoiler
eruption
rican
##eem
##hoe
##arov
##ariat
horns
conceived
dimitrov
repugnant
daring
##inently
##uddin
outburst
backbone
facilitating
unconventional
foreseeable
scaramucci
##dl
##uven
aden
dove
howell
winless
161
##yna
pretending
darnold
dilemma
grooming
earthquakes
hormones
inexpensive
dmitry
cio
tsp
##vay
##alam
cozy
##ondition
smashing
waterford
hawley
diversify
breatht
diameter
astronomical
prudent
hf
##nard
##jon
brides
parach
instincts
conditional
anthrop
supplemental
expansive
erupt
##bm
##azer
1961
kilograms
seventeen
interfering
keywords
nicotine
breathtaking
aux
rbc
haird
saudis
zombie
republished
##levant
##aste
norwalk
patents
recorder
directorate
ratios
olsen
adjud
fiancee
kyrie
courtyard
coliseum
overthr
blanch
##ervice
bacterial
diction
nieces
sard
##ections
resumes
##ulla
corros
kathryn
xinhua
hiat
##number
shrew
brac
raceway
somali
arbitrary
adolesc
recharge
presbyterian
##rings
spies
informs
squash
resurf
remembr
irrelevant
beirut
osinbajo
tended
wl
thump
##amili
shov
chau
cane
outage
##oughton
mayhem
austerity
darkest
bav
chants
franks
millionaire
rulings
rudd
rupee
flourish
##bike
medie
wikimedia
stronghold
vect
maf
ballard
buyout
unfounded
debuts
siri
tuber
##uates
##elles
lett
transporting
premiered
methane
6000
rossi
pcs
printer
boasting
blizzard
elle
vegg
maori
##flies
obey
greenback
unlocked
75th
briefs
hugo
kayla
velocity
fiercely
hydra
##funding
tyrone
kellogg
separatist
scottsdale
lme
##eras
ingest
informing
collects
motel
undo
rutherford
medieval
mow
nana
##pb
##urous
schiz
endow
damon
broadcasts
packet
friendships
mickelson
arcade
hemis
bancorp
undermined
pash
forrest
aldi
drafts
commissions
desires
informative
welding
attendant
religions
swimmers
dodger
paralymp
paragraph
##non
ingen
peas
teas
248
generals
memorials
revolving
weakening
refreshments
mavericks
bax
wight
yuk
perceptions
wednesdays
255
242
vera
sherlock
flavour
outsourcing
##cam
##nington
roundabout
diarr
##ographics
historians
html5
mcgill
residences
swns
gis
pins
prague
##izu
reddy
dreaming
mentors
##people
buckley
lori
buchanan
ee
hare
##esting
##achers
emil
secre
defra
loneliness
##ominium
mcdaniel
seaside
rosemary
hungarian
##jas
##ovsky
slams
transp
idle
mids
condominium
allowances
predator
padding
piper
repayment
##du
##500
##jin
##isky
##emaker
butcher
memos
genres
##ettel
exclude
mccormick
overbought
ال
drib
drained
evid
appalling
sche
##iera
collisions
163
loe
333
unfamili
dinosaur
430
barrage
tallied
horizontal
theo
##odone
##herst
##photo
angu
motions
##uku
dependence
aiad
dickinson
styling
lubric
disclaimer
hiatus
##92
##uca
needless
snapping
hears
gadgets
sympathetic
marriott
filipino
fidelity
fec
mould
nguy
##uga
##pora
patroll
##oscience
mushroom
aiadmk
jt
##jack
thc
##emic
##rium
grandma
transitional
guessing
levelled
abandoning
##orthy
unleash
contradict
lehigh
reinstated
morneau
##emy
peaked
polite
creed
michele
100m
457
oversold
adamant
chanel
smokers
##ocus
strand
##tyre
##encers
mori
verma
psa
victorious
erica
##breaker
andreas
censorship
kenyatta
hhs
##illas
broc
501
sufficiently
pedal
blinds
kitty
batsmen
tubes
tornadoes
segregation
derivatives
caffe
##hey
##bol
boiler
screamed
lakewood
fema
liberia
fitchratings
insightful
puppet
cortez
precautions
newfoundland
tracer
lact
##84
webc
crick
setbacks
corrob
subpo
jung
32nd
collaborations
henley
translator
implicated
intimidating
jalen
obscure
burgess
subpoena
sama
##igi
alarms
spared
unreg
unrespons
hadid
winters
rubicon
motivate
kurds
carnage
crooks
aussie
nguyen
gull
nac
chats
##agements
##ectal
##ruff
warmbier
manipulate
vish
zika
anast
addo
530
sorted
essentials
conceal
marrying
kop
##rade
##mere
##adder
conner
maroon
outnumber
caravan
##ewater
prominence
mccull
##embourg
vaccination
aquarium
sliced
huffpost
indefinite
remnants
##alom
##icles
analog
romelu
microw
randolph
##borg
dealership
ancestors
iqbal
##ssa
##vable
##oton
ald
impul
mcph
toned
recipr
perceive
stalking
arpaio
dhs
ea
htc
ica
##jiang
forfe
ukip
cardboard
communicated
miscon
suitcase
enhancement
ambulances
duffy
ritch
arter
##indra
apost
veh
northam
entertained
reunite
tragically
discourage
##kah
##jit
slopes
1200
redirect
melvin
constituted
borg
hooker
annoyed
sindh
harrowing
##ienced
##wing
chilly
blends
beforehand
coastline
romeo
slippery
jupiter
##db
##etan
compart
researched
funnel
##umbo
breweries
disruptions
incorporating
hammered
sloan
burdens
frenzy
gael
waved
pric
trench
devote
wilts
kelsey
tuning
esteem
unrealistic
shapiro
incarceration
mba
##edes
weights
adorn
edo
##apple
antenna
geek
##class
bowel
babe
fearful
mutually
tents
uj
##york
manually
reggie
joanna
colorectal
vetting
tempted
pagi
##hackers
timeless
coch
decker
##enga
safari
generators
specification
civilization
snowy
lecturer
involuntary
boul
cps
gomes
jeter
##rp
##acement
ashe
butch
alma
crimin
brookfield
liner
luxembourg
axe
undercut
spans
unman
##isson
donned
farr
cumulative
entrepreneurial
wastewater
wad
##iker
schultz
trumps
photosh
terribly
immens
acquaint
trucking
jessie
inadvertently
lein
callaway
leadoff
multilateral
damien
favourable
yielding
tendencies
disconnect
gourmet
##°c
theod
##enes
brunt
amherst
##ileaks
planners
westfield
supern
attribute
diners
undec
baths
gutted
adversity
rashford
stimulate
gemma
caz0
immersive
biting
gase
##icio
clog
imran
polished
##quist
paddle
##haran
upsetting
stabilize
pantry
trolls
##espie
pundit
nitrogen
sulphur
##ako
meats
noads
lastly
184
auditors
dominion
##nelly
skyline
loudly
rendition
unexpl
bant
bmo
dared
##cestershire
sai
##apa
canine
##actor
158
taxis
poorer
fashionable
lipstick
uzbekistan
voucher
hires
pse
rattled
roaring
storylines
admired
mccart
unfolds
stresses
breadth
groove
disrespectful
redshirt
unresponsive
emble
desmond
308
milestones
164
forcefully
merged
bioph
integrating
lockheed
##address
automobiles
050
rosario
jamal
vocational
disadvantage
lisbon
nile
##qf
stool
thats
##abulary
spca
##alli
ade
##acho
smear
fireplace
snakes
##uffy
olympia
munster
osce
stickers
rupt
suzanne
remembrance
toff
anand
##illac
evenly
golds
fatty
saddle
kirsten
wikileaks
520
##jani
##usi
##usions
invention
removes
antics
varad
ruler
bullies
sheldon
ajax
skepticism
redesign
namibia
gale
qtr
##igail
regained
glitch
morg
grease
determines
accuser
gonzales
cyclone
alignment
ogun
spaw
fein
##qua
detach
discrep
skipped
lorenzo
pillars
lobbyists
revamped
flirting
kraft
nand
rj
vail
braf
doom
capex
putnam
landfall
218
keystone
sweater
sweats
escaping
restrained
controversies
busted
issuers
retrieved
abundant
algeria
nune
reorgan
##oyles
sanford
hurling
mosqu
contesting
imagin
fabrics
gillespie
stamps
finnish
nineteen
vehement
dier
indeb
slain
confin
landmarks
sentil
antagon
285
martyr
substantive
##osaurs
dorothy
seagal
unfamiliar
capp
daim
nih
amassed
thanos
anticipates
absorbed
directs
nucle
whipped
##thood
levin
modular
snub
£12
molested
spearheaded
kano
##houn
##ku
##chuk
traps
orr
incap
playhouse
attire
statesman
##haus
machado
microbi
hangs
lobster
mechanic
arkady
neckl
grammar
trenton
compulsory
indebted
cag
foe
pies
sigh
##emont
usda
##arya
minic
##cribed
boarded
552
masterpiece
tallest
sewage
sesame
username
ssw
spate
##mani
walkers
iceberg
wolfe
courageous
bingo
counterprot
lays
##rals
##mic
##elet
##igm
perennial
foothills
ballpark
anticipating
bleak
mlbb
rigs
gentlemen
ceramic
pau
##oit
##gov
##oum
##street
reperc
descriptions
crease
181
giveaway
erika
infrared
begging
renamed
mentoring
addictive
tencent
wiltshire
mlbbase
repercuss
fiona
gaze
##enburg
sms
##coon
pots
vulgar
landscapes
muscular
flickr
cahill
dictatorship
sikh
##ellations
##raf
palette
middleweight
benue
foxconn
##hea
eyeing
hindus
velvet
hammers
fingertips
confinement
cen
kok
##fm
unarmed
marilyn
putt
milford
educator
ceil
ronan
prayed
##iatrics
digitally
chp
bricks
redund
173
antoine
porto
verse
nurt
clifton
spit
doi
disarm
rox
schn
defects
defiant
props
donegal
archie
harvesting
lukas
toppled
intermitt
giff
vettel
inh
pry
prized
sped
myles
glut
basel
linemen
##rafted
laurel
schizoph
bitch
malk
wv
##lal
chee
fra
cramp
playbook
youngstown
##intosh
premieres
##written
1957
fernand
ignorant
brafman
fuss
jv
twists
primetime
registrar
mlbbaseball
schizophren
fumb
rana
shenz
unaff
emanc
protr
##igroup
##ammers
knowingly
tankers
kourtney
##corp
##gling
##7000
##arie
alvin
freeport
violin
combust
groundhog
##ographical
bagged
facilitated
antibiotic
precautionary
trespassing
unearth
paran
towels
cruises
bumped
natasha
miniature
fleetwood
dahl
gip
##lade
##oway
neh
##ectic
reside
co2
popcorn
sawyer
fingerprints
portrayal
traumat
titanium
faz
kah
##bay
##laws
westwood
mcgin
bali
graders
##iggle
kirby
stemmed
##oscopy
simplified
fullerton
lighthizer
chrissy
immensely
ved
vinc
##otr
1917
convoy
countered
youthful
stadiums
740
livestream
cumberland
##ambique
downstairs
icing
##erspoon
quentin
payable
erase
babcock
sticky
axel
ricci
eut
##mentation
##athlon
milo
pleasing
238
camden
ideals
murad
birch
walnut
hyster
biography
melted
dismissing
spartak
rationale
tusc
mozambique
slovenia
##culosis
bitten
jian
tid
##mw
abigail
facade
saturated
snatched
iris
billie
libert
antiqu
towering
examines
vigorously
gritty
tuberculosis
2a
zay
spont
outset
183
driverless
ruben
retrosp
anchored
hathaway
suther
##94
chil
offside
amr
scent
##urned
##otte
modelling
##into
cooled
commercially
collectors
ferdin
sprayed
stirring
tnt
diaspora
trousers
rave
##abl
adobe
offending
collier
chevy
sammy
cathy
compromising
concussions
corker
cheeky
2d
##dorf
wei
para
paed
liking
ledger
##ethylene
olympian
jenna
triggers
ruthless
fucking
worsened
unrestricted
wards
##like
spying
broyles
crap
##ptons
flores
mcgee
militias
criticisms
navigating
smugglers
hector
autopilot
mocked
##pad
fray
##india
flanagan
swung
221
ambush
negotiator
conflicting
litres
mantra
aleksand
hna
jn
##olta
newtown
interconn
swaraj
sidewalks
460
galvan
lucknow
exported
polymer
ligament
canterbury
bumble
##aston
soaked
donnelly
guzman
nightmar
greatness
##stroke
misery
jammeh
tragedies
retrieve
intuitive
gail
nay
unesco
proponents
valu
engagements
outsiders
prosperous
unsuccessfully
alyssa
maldives
ritchie
efe
fats
lena
vive
##ileen
##ahs
##show
rosie
narratives
horrifying
mln
seamlessly
inquis
insurgents
pepsi
juicy
dances
oding
##eous
##oiled
conquer
vein
herein
midweek
##echi
undrafted
puig
frameworks
baut
shrug
acknowledg
##azeera
gibbs
endeavour
reimbursement
glucose
##bt
disable
runaway
229
##comp
cadillac
tentative
mimic
cafes
wanderers
strowman
aq
inund
uphill
##avy
syed
stevie
deposited
disadvantaged
pundits
shenzhen
b5
yr
##pable
##wald
##olar
##olina
ammon
decatur
166
vols
linear
buckle
nerd
trivia
odinga
##fk
carbo
careless
calhoun
forecl
conservancy
championed
dissatisf
exploits
qaida
xxxx
futuristic
630
hul
backer
baseless
philips
baba
casa
hacks
apparatus
eagerly
gwen
##killers
kubiak
prowess
##fig
regiment
suppression
concede
paterson
bidder
bombshell
bharatiya
daimler
dyer
##fair
ench
outlines
playmaker
guise
terrell
favoured
locking
switches
bhatt
kamara
metallic
varadkar
bode
##wani
outbreaks
defiance
buffet
##falls
gamec
swallow
shoreline
cic
ripple
##alis
##thy
##ivable
meticul
187
##eworthy
superc
millard
darwin
synchron
crawl
steadfast
##winds
alarmed
frightened
burgeoning
pater
##wah
chh
awarding
wooded
rejuven
##cycl
shells
tirelessly
disparity
regeneration
dok
sals
##acom
marr
wrench
captive
erased
crimson
blockade
jefferies
owls
mathews
payrolls
turbines
hierarchy
forcibly
cog
noc
vu
vamp
##lich
neural
herpes
takeaways
seng
metc
congressmen
odys
harrisburg
correlation
capacities
fca
##aut
##sy
##bble
##gil
chanted
striving
roeth
explode
domest
revise
misman
ode
establishments
bearish
echoes
bruised
louder
endeavor
hemisphere
spd
grub
accra
##ryl
defy
glover
bureaucrats
remedies
vomiting
overshadowed
tumultuous
hydraul
ferdinand
piers
##named
##alach
disk
earrings
passports
benign
biopic
416
bello
consisted
renewables
rejects
databases
maze
vant
chassis
orang
grazing
disbel
##gettable
295
textiles
overseen
##ozan
controllers
unpro
fascinated
mcdavid
moistur
slugger
repercussions
dues
##liness
##vency
##abank
flashed
budding
vacated
examinations
occupancy
lemonade
societal
tink
##82
anecd
sphere
##ellig
wherein
respite
233
##ucey
##2018
deductions
kilometer
##estyles
injections
squirrel
hof
##fman
##518
asph
asda
compost
racer
traveler
cartel
deteriorating
unforgettable
piles
firstly
insign
hereby
##riot
cameo
kindly
##echt
ossoff
katz
pilgrims
cinder
dade
lich
##hoff
elena
writ
insults
swearing
illustrate
brilliantly
palsy
veterinarian
pity
coney
hahn
tric
welter
dubious
patriarch
warranted
megap
notoriously
unfolding
derailed
affleck
sarasota
qtrly
rath
##rice
##olics
##ocate
510
spartan
ict
jain
1920
idris
cheet
painkillers
terminals
henri
nuisance
untreated
ultrasound
fom
hanna
motto
uf
£40
##zh
##vr
alright
chou
saul
pervasive
##ogo
##iscip
hurley
lackl
mandates
brazen
instructors
sickness
scarlet
##aspers
##lisberger
deterioration
verbally
metabolism
2m
lf
##path
mao
sims
biomed
documenting
##values
kalam
preceding
igbo
fertilizer
booze
impartial
cinnamon
##pf
##nt
##lund
##icist
ants
sapp
top25
learns
telecoms
coding
nordic
ceilings
yum
##xi
##acs
drying
indo
howe
nationality
halo
giraffe
secretariat
##oooo
dismal
frustrations
##arthur
tracey
luton
roethlisberger
fend
gears
hess
##onica
##uso
##herald
twitch
redef
obasan
joints
completes
walkout
335
affluent
##hous
##nick
##olet
##chen
##apest
##acha
impover
intoxic
irresp
299
conductor
wilbur
aidan
comprise
muted
elevate
rehabilit
viking
eugen
irrespective
fiesta
kamp
heb
alliances
##001
coher
playboy
midw
learners
audrey
fairgrounds
curbs
nicknamed
consolation
inhabitants
bays
jams
##gences
##jam
spices
salads
investigates
paste
##aldo
digs
540
ninja
dwarf
taiwanese
shepard
yamaha
tranqu
obasanjo
a1
dag
tass
##start
shre
bribe
menus
##iscover
mayoral
admittedly
tammy
ligue
feminism
distinguish
commencement
siemens
spiked
ouster
##fan
##ilitar
dehydr
outlining
pee
aparth
consulate
wrang
177
dinosaurs
unsust
cordoned
gigi
infantry
mascot
squeezed
caffeine
##rant
doherty
glaring
subtr
##shan
karls
durability
disciplines
orchestr
secrecy
##cers
##adr
##ersen
aldr
broth
infused
cheg
rhys
christianity
exhaustive
gou
##97
exporter
##inders
induction
roz
ernie
262
heartbeat
337
##207
pyth
pfizer
honeym
refurbishment
adrenal
ais
sizable
vapor
yulia
scho
officiating
sonoma
ticking
depths
pioneers
linebackers
##aspoon
jihadists
mosquito
nf
##itives
frog
abub
223
funn
budapest
khos
dividing
deserving
bruises
francesco
applaud
dismantle
cbn
coerc
idiot
waterways
breakaway
intensify
lodging
robbins
adityanath
aman
scour
roar
##ointe
membr
wrestled
tailor
altering
philosoph
fluctuations
antarctic
##irus
withheld
tramp
allot
teaspoon
##issible
valves
watchers
mccall
425
pertinent
rour
##but
##iland
spas
contends
doncaster
makeover
demilitar
##upe
prophet
motorway
aguero
kogi
##atl
##elig
cone
expulsion
scars
mcvay
standardized
dunkirk
desperation
dwelling
russo
cultivation
crusaders
kramer
giles
woe
##anovic
##adic
##amins
anam
vega
pett
screams
##gaon
##iciencies
diversification
scaling
bolstered
##83
inver
##odus
##upts
extortion
sexism
bloggers
kait
sabres
ubiquit
marquee
inexperienced
fencing
vets
pregame
cleansing
behold
prominently
debating
frontline
citigroup
lifestyles
doubtful
1953
mendoza
pandora
lobbied
cpl
##nm
partying
##licity
winchester
realizes
buyback
cheque
bustle
bustling
havana
mariota
doming
fizz
##waters
##lt
##elof
frantic
amort
edison
distraught
inflatable
liar
motorcycl
krug
harassing
mcmill
nonprofits
ethiopian
jubilee
plasma
karabakh
##lbs
thefts
abre
##eyes
emerson
betts
coloss
superman
ecology
horrendous
buffer
tanya
claus
pomer
dugg
guts
tcu
##omas
allergy
twp
boiling
banquet
rescind
principals
hoop
nikola
metabolic
##bite
downey
smes
openness
idr
convict
scarce
validity
shedding
murdoch
bromwich
sushi
lankan
illuminated
foes
ih
##opath
exodus
brat
presided
delo
##text
saraki
embroiled
convened
federally
hassle
corridors
jamb
##etty
beet
atkins
coles
cabrera
1956
sime
##itova
centrist
praises
madhya
appellate
bautista
muff
##dain
coaster
backp
addicts
wedge
primaries
slamming
disagrees
confederation
astronomers
whistleblower
gior
jazeera
##waves
##zmann
brie
emmer
contag
191
demographics
eras
rockwell
screenplay
embroid
hugs
harbaugh
retaliate
tempting
discriminate
lcd
apartheid
##ben
##lp
##asaki
arn
carve
##phal
morality
modules
humbled
seriousness
##heit
attachments
eliminates
bicycles
prestige
buddhist
refrigerator
krishna
crocod
anadolu
asphalt
kaspers
tones
##mie
##pca
##antically
mcs
##forth
distill
births
crowdfunding
rigged
sightings
bogus
pyramid
minicamp
##pid
##best
##alp
twil
##ffe
emper
schro
##roach
##undy
womb
handmade
realization
suspending
anglo
vanished
shipment
8000
wandering
unsustainable
bist
dice
fading
kro
vile
##mur
##weet
174
dangerously
##oomba
kellyanne
skeleton
gucci
##aq
##asian
presumed
opel
looms
constituent
worsening
monterey
##oqu
compounded
doha
##ajo
giancar
cyberatt
##keyvalues
burglar
indulge
subdued
inserted
metaphor
dots
dara
dhar
luna
n1
##rio
##tslot
##apgh
marica
distractions
palms
elemid
booster
##iliary
nikolas
streamline
greyh
tier7000
plunging
aolhtb
scrambled
g7apgh
hbkeyvalues
retweeted
mahmoud
rubiconhtb
##tslotname
g7apgheo
jing
lotto
piet
unthink
ene
##assic
259
fielded
mohan
sandals
permissions
390
bidders
aspire
munoz
mailed
bridget
brilliance
dianne
yosh
##wo
whal
##ibal
ape
romo
separates
categorized
bmc
underscores
vehemently
koz
mj
##icular
seo
arund
##ipedia
intest
playback
staten
corbin
243
##beans
limb
immort
angelina
madsen
scrip
undue
quotas
profoundly
jolie
ketch
giancarlo
jem
lug
tet
tian
leuk
unpar
##oglu
schm
authorize
janice
activation
racers
ensued
braden
niall
mocking
oyster
adel
clan
sofa
blur
nightly
##ecker
cutler
rulers
##banks
texted
coffin
flashes
hawkish
reap
trol
quinc
breeds
connie
limbs
crosswalk
felon
bumps
rahm
prevailed
sahara
accredited
mccartney
heed
adolf
whichever
connolly
coping
gerr
mosquit
drinkers
meaningless
rumoured
ordinator
hauled
discarded
e3
##aris
toow
##etus
##otics
asa
amelia
evasion
winfrey
harri
proclaim
anglin
berman
darrell
apologies
crafting
monkeys
pug
##fight
##iton
onwards
##oks
impunity
defying
collin
essays
calcium
hectic
emancipation
euthan
cil
siss
##techn
##reb
fortress
pritch
##olla
bln
decay
##undi
authorised
logistical
dads
blasting
bibl
baxter
##asive
reina
upro
publicist
subord
tarn
##umba
counterint
impressions
osaka
##waite
forgiven
unnot
suspicions
razak
jihadist
betrayal
succumbed
##agin
unres
interd
headset
simulated
humiliation
expressway
905
sherry
derozan
sponsoring
transformers
weakest
##hawan
parishion
trimmed
mikel
wreckage
degeneres
btm
##orus
oft
worcester
append
bland
cologne
genetically
approves
huang
clinicians
circumstance
disappearing
dye
nods
kvvu
detrimental
dishonest
xc
##oil
unim
ari
amput
appalach
helena
proclamation
sniff
greenfield
behaved
plantation
mandy
##space
gaa
860
##115
##valued
napa
##committ
asteroid
mischief
uranium
##bread
##creen
##ativity
##isel
noteworthy
guad
garrison
respectable
702
derry
eclectic
repealing
giul
jasper
marginalized
fostering
leroy
rother
sweeney
waged
zag
##icates
choked
##weights
##vington
furry
rounding
##inoid
harmless
wrestlers
crowley
implants
vaughan
lorraine
guter
##eh
##rac
hep
dey
abiding
locating
ester
wwii
273
pinpoint
besp
exceeds
exploiting
paradigm
annexation
keegan
kep
stout
##adish
herz
hillside
sandoval
influencers
optimization
culprit
thakur
##vish
carer
presiding
autobi
rests
payload
##shield
##beau
sprained
carlisle
##cyber
ravi
molecule
domestically
lust
##arro
shocks
pleth
##iku
delph
topical
sentifi
combating
lewandowski
booths
gravel
solicitation
contingency
mcguire
peshawar
dictionary
dail
hulk
pj
##bench
##eties
regress
itiner
trub
farah
sunil
249
313
indicative
sudo
disagreements
rehearsals
contemplating
gynec
rourke
plethora
kra
sailed
##soe
1030
##atha
viewpoint
centerline
stocking
heartland
characteristic
##partisan
mullins
unicorn
rescheduled
gile
##umab
goats
##obar
hels
callum
startling
##oupe
confid
possessed
believer
ironic
camille
baloch
buds
okanagan
toughness
0409
landscaping
aquatic
##uyama
cramer
##adia
acids
butte
marse
contended
##ussen
252
yorkers
219
unlucky
methodologies
hoos
£25
hanks
smells
griffiths
grayson
hesitant
ubiquitous
nieto
taur
alc
##iken
reposted
##trod
stature
253
divides
secretive
layoffs
entertainer
diploma
feminine
toowoomba
kb
kha
tert
onsl
##arton
##outa
marley
incar
mango
##alding
easton
motorist
cruising
giov
mushrooms
scathing
##rorism
refurbished
abubakar
aksh
inelig
ensh
admiration
rhe
counselors
ibaka
sinister
decorations
ancestry
untrue
lettuce
cube
ican
zte
##opathy
hamburg
sweets
punishing
illustrates
hamper
rmb
karlsson
incarcer
dhawan
lass
tg
threes
##reau
mara
swollen
227
benchmarks
ferris
oxide
relaxation
comedic
azerbaijani
gurley
dazzling
loehr
##eaux
##vale
chaud
sains
clusters
##odynam
erit
extras
bagley
reinvent
lectures
mammals
theoretical
resembles
prostitution
srinagar
honeymoon
unparallel
biblical
stacy
##ortment
crm
companions
worldcyber
whereby
inflated
msu
wilkins
ebola
crawley
intrigue
heathrow
worldcyberhackers
ej
ives
##belt
anes
deandre
coul
##ipo
agar
##ooks
raq
husky
marshals
bnp
carbohydr
unnoticed
unparalleled
ein
kettle
scept
##yah
scaff
coates
currents
novich
sequences
entitlement
hydroc
soybeans
flanked
uneven
maneuver
2k
hdr
mav
ond
##mah
##das
exert
manus
eller
thrott
histories
waive
curved
wonderland
mortem
aiding
grapes
intimidated
ogden
nailed
biscuits
accolades
leinster
ailing
pess
tinder
##ayat
##otion
grimes
psl
stirling
cosmic
plaus
gilead
danced
zel
##wc
stains
brah
probi
##ipur
downfall
defunct
swanson
fullback
specializing
eyel
bulbs
dunford
brunette
comedians
handcuffs
inaugurated
guterres
##hir
##nies
##zone
##lees
##orte
clive
els
bret
profiled
237
heartbreak
sizeable
dermat
naples
crooked
hypocrisy
unthinkable
ferv
rails
zinke
outf
##sov
polk
##inka
1918
##flower
disco
suspensions
deepening
##hei
embod
sirius
vocalist
conveyed
kaspersky
lour
ripe
##onian
tram
##istine
upright
invaded
defied
stocked
envy
fischer
ruins
obliged
tacos
depleted
unmanned
gim
ves
##staff
##thorpe
shik
episc
decidedly
vacations
##aja
abduction
aeros
explanations
poole
##mdb
sutherland
##rays
##oran
##alla
imo
cries
emulate
##ctica
paragu
slashing
sami
mastermind
assertions
##lifted
encryption
embryos
1m
4a
inhal
marys
outpost
verde
misrepres
sensory
entrenched
diner
tightened
625
emeritus
1959
organisms
labeling
muddy
buckets
yogi
emboldened
nip
poke
##zewski
##etok
ancel
##icef
##umps
flatt
swot
patton
##cox
lofty
jeffery
lindelof
buzzing
##coli
myths
wikipedia
hydraulic
1mdb
##itos
##otv
##igator
##imon
hems
##obo
directory
12pm
camilla
envis
##mpo
scenery
cabinets
taped
predictive
1940s
wetlands
pronoun
breakdowns
appropriations
moyo
blatant
nda
##tes
##kenny
##etal
recapt
timer
embe
glenc
sling
groundwater
tsun
bridal
muller
bethel
cladding
fremont
impoverished
##oye
homegrown
##haji
##block
hollande
ceram
infringement
antarctica
bakers
loll
nipp
##nite
##ilk
agon
thereof
eviction
firsthand
insens
placebo
emailaddress
finalised
summons
pickens
nonf
rockford
344
behaving
580
reinv
streamlined
prohibiting
turbulent
hairdress
evidenced
och
rakh
##croft
##91
##igley
caramel
feinstein
showman
statistically
morse
taxable
subscribed
inflows
cebu
safeguards
bonding
rooting
simplify
alvaro
infinite
maverick
sbi
alta
##ichi
anglers
colleen
oversized
ecological
mahal
760
debra
rohit
cache
gosh
tamb
wir
##erun
sunk
nonpartisan
malay
type4
type3
existential
foxes
burnett
procedural
briggs
stamos
unicef
resett
moderation
christy
multitude
264
squar
blocker
60th
ghouta
##ozy
##guided
congrats
whisky
blessings
bolivia
declassified
schizophrenia
ratch
##uously
##zig
##ecc
fraught
##ianz
flipping
underwood
remix
##iversity
raul
calvert
244
crossings
336
lien
terminally
perpetrator
kosovo
culmination
tussle
embezz
bolog
cues
gaw
tms
vix
##tale
##bana
##anza
##ource
footed
dombr
##apeake
huron
broadcasters
670
reluctance
zarif
noodles
oust
vowing
##money
##antan
paycheck
violently
camila
317
560
repairing
rabbi
sacrificed
clyde
b593
iom
lv
rund
##acola
expiring
##ailing
accr
demp
slider
pmi
rubble
henrik
frederic
ayo
cockpit
reopening
dupont
postpon
priyanka
hates
yash
##elcome
##amat
algae
fared
visuals
shortest
##white
##queen
cancellations
bowles
805
barrister
cavani
franchisees
reactors
leveraged
buddies
microbes
tomlinson
trubisky
gart
wti
##uilt
deeds
amus
scant
scammers
##izen
centr
glue
gloom
sled
curves
benches
chesapeake
confiscated
mormon
pseud
920
dx
bigg
requis
moff
richer
danilo
misbeh
casually
precarious
##global
swimmer
hustle
korn
upp
##itution
##icating
bram
clocked
buk
skys
buildup
majestic
estonia
pricey
encarn
malibu
tabs
jerm
baez
##layer
sudanese
downgrade
aramco
episcopal
pah
vibes
##tops
##league
shady
##ianna
assortment
donut
raider
netball
honore
responsibly
gallant
olad
dramas
authentication
monumental
£500
peso
pinnacle
encarnacion
##jr
spelled
##trak
##azar
sloppy
visions
mcad
menstr
uncondition
definite
ethere
appliance
gigs
holloway
cme
eileen
hove
henson
ober
##wed
##itian
##abies
##trans
brees
greer
differentiate
dogged
papua
ninety
striped
concentrations
channing
scratched
oreo
kiwi
dysfunction
charismatic
unsurprisingly
yeast
##mia
##atz
##edin
##asley
##akens
##ivation
plaster
usga
##uble
appointing
decomp
barlow
discern
morrow
harrington
rebuilt
flyer
martins
kelvin
masked
shiite
ransomware
purportedly
miy
viz
comet
##oker
draining
##ounmpo
inspires
treasuries
pixar
archaeologists
wann
##z1
##jad
##alta
shines
skyl
calib
departures
multif
345
1954
gabby
correspondence
rupert
underscored
blossom
resentment
nausea
boc
gork
##ril
choke
canv
belize
boiled
condoms
waver
commissioning
precinct
4000
psyched
tumble
divergences
flawless
eatery
claudia
disbelief
gins
laced
nang
zac
##andi
agost
resemble
warpl
airtel
roadmap
antetok
husbands
counterter
innovate
hinder
1942
variables
xfinity
copp
caves
##dh
##year
arna
mania
##uben
meme
legged
simm
sane
mcbride
348
shelley
##keepers
##runner
sainsbury
omin
piss
tess
fru
retains
culturally
tabl
gladstone
riped
soybean
complementary
chunks
envisioned
##5186
bouts
##wat
##opl
oph
lowell
slips
joa
legalize
##ciences
java
spinoff
bartlett
e5186
nus
panda
tester
##urai
beads
saban
##ppy
acosta
leased
##achal
newswise
obi
irons
customary
designate
widened
brainer
truths
synonymous
937
1955
scarf
reprieve
folding
intrigued
mazda
humiliating
dors
lured
##ocon
quits
extracted
tabled
flooring
kardashians
gonzaga
honourable
cyril
pulisic
biomedical
quincy
raqqa
##icle
combs
##ocally
dej
caric
greed
greets
dolls
ramaph
sarat
comparatively
dwyer
coincide
ikea
grappling
zlatan
ineligible
8am
dari
kf
ripping
##eel
##stow
canned
compress
complying
covington
elgar
goodell
insom
macon
handset
entitles
fabricated
discretionary
exemplary
cib
yuc
iniesta
##oug
##omics
##otle
storing
mening
funky
##anao
constellation
californians
danbury
antique
oakley
ponds
prescribing
landslides
conformist
pudding
disproportionate
arvind
pencil
incarcerated
novichok
antetokounmpo
sinn
##ionage
1300
mainst
hardcore
garry
crowns
neurons
adversely
reassuring
passageway
nour
allardy
campaigner
beginnings
sherwood
springer
owl
catholics
georgian
1946
ghanaian
tossing
devotion
oscillator
blistering
pianist
allardyce
wanda
##wired
##orio
##eard
unification
worsh
mea
bux
maher
discovers
duran
rusher
peggy
huffington
1920s
yukon
##sb
shul
##uliar
##occup
expiration
##eko
##ahar
glor
netting
leary
deepen
afforded
##aea
rickey
rosenberg
tobago
kristin
nnw
interpreter
abdomen
agh
##400
##alal
hain
manic
tease
roach
preacher
##itsch
corb
##ocratic
bananas
magp
garfield
610
cherish
deception
paradox
intimidate
hogg
redesigned
hovering
jails
raff
framing
suicides
##ocious
carole
tequ
1600
intricate
contractual
apologizing
csu
bethes
positivity
tutor
mathematical
phelps
ramaphosa
gud
ivey
##good
heyn
atp
##usch
cannes
##train
edging
informant
whitehead
316
settlers
boosts
cherished
constructing
enrichment
oscillates
exacerbated
io
woj
##erra
ched
byu
##tration
imply
infuri
denouncing
begs
arabian
615
fantas
birdies
sticker
boomers
divert
ponder
peculiar
emperor
##kamp
tobi
alton
haze
brushing
##venir
boardwalk
eroded
browne
499
hillsborough
motivations
lunchtime
hartley
princes
jerem
ezek
fugitive
theodore
##tas
thumbs
andhra
instal
##uckle
lydia
880
fluids
kristina
hesitation
odyssey
onlook
conqu
brist
soar
quer
emea
relinqu
demi
slc
deli
topeka
melod
simplicity
##osterone
picturesque
oxlade
longh
arraignment
forsyth
sabotage
unequivocally
##tb
chub
unlic
offload
##ioch
engages
maddon
gallup
obsol
splend
thumbnail
conspired
mummy
zimbabwean
lorry
nexus
swirling
strasburg
tertiary
kobe
##dish
noticing
manu
memes
capitalist
wrongful
fillon
470
ronny
ajay
fragmented
diminish
landowners
giphy
bethesda
cte
ola
haf
exquisite
enugu
compression
croft
corin
254
##prod
garment
forceful
melinda
412
##ckes
877
enhancements
wisely
covenant
sparrow
overthrow
6am
hays
pang
wob
saff
yous
##bria
dems
skaters
forwarded
charlton
recognizable
stunts
rabbits
viktor
archaeological
nostalgic
obsolete
iain
upped
##igl
##estown
##endously
##avo
evade
##brush
sharap
swoop
##oppable
customization
spectator
accelerator
sizz
##abilia
quizz
medley
sanju
revoke
novice
adversaries
bergen
persistence
michelin
inferior
counterprotesters
onslaught
##cas
wex
marquette
reconn
noisy
addison
finisher
souvenir
##ewr
antiox
benf
##eseen
carrots
astana
anchorage
betrayed
fayetteville
dprk
bespoke
antioxid
fitt
hips
pines
mare
pollin
indycar
knocks
underwriters
helpless
skipping
violet
esports
sported
utc
syndicate
stylist
counsellor
explorers
abhorrent
##brandt
staircase
baird
unlicensed
##asco
alhaji
trough
ley
worris
crater
timeframe
interiors
treason
nicklaus
avert
fon
hoss
ritz
##umont
alli
herm
##icki
playwright
##grave
baller
##govern
rebuke
conception
spraying
regretted
worrisome
naugh
tyl
##inarily
##alan
##illions
depp
2050
recycl
interc
elgin
##ooten
westport
declares
415
mailing
botched
cynical
improvised
bistro
sharapova
kak
##mobile
haunt
incite
colombo
subcommitt
daven
234
##umenthal
pollock
briefings
biden
pediatrics
ashwin
azure
decorative
piracy
lique
ui
##vn
##itic
##ppard
lea
composure
1100
likened
captains
brandy
gearbox
nikol
efficiencies
tumour
gentry
biking
prematurely
matsuyama
whirlwind
repetitive
roommate
necklace
counterterrorism
somm
tp
##900
##kers
##atore
beams
arre
envelop
allianz
evgen
ifr
parity
paused
##appers
##yll
memorabilia
##ymour
adventurous
hrs
bursting
plummer
adapting
pegged
accreditation
leukemia
cis
faked
gild
wien
##gios
##atum
chey
sealing
phi
subaru
majesty
mcel
limelight
##lerosis
berk
luca
knowledgeable
hershey
##iyar
accommodations
brantley
multicultural
marseille
7am
jaws
mok
mct
##xm
stove
##pless
testosterone
deadlock
forehead
seldom
castillo
turbochar
practitioner
buoyed
hortic
surrogate
fang
##ross
##zie
##gill
##abel
clr
transpl
checkpoints
35th
331
samara
misguided
lucasfilm
scratching
lombardi
voyage
asheville
ck
glee
##gat
##qb
chu
chid
allotted
resusc
provoked
bellev
257
moons
276
complied
enjoyment
hallmark
karim
shopper
psycho
grassley
orchestrated
torey
pensacola
caliph
kios
lm
nts
tud
uci
##state
roost
paral
veg
teller
britons
awakens
perfume
faulk
concerted
£200
deteriorated
peacock
patrolling
faux
pawn
##hoot
##fd
ante
harming
firewall
nominal
pathology
kroger
gaines
hanover
quartz
affirmative
botanical
microwave
scaffold
prie
manpower
##haar
carrick
##comings
narrated
diagnose
lords
boucher
echoing
capsules
brisk
geographies
bellingham
rousey
png
##imps
belmont
258
humility
shortcomings
321
displacement
bernabe
kitchens
baum
breaching
attachment
relievers
manipulated
moderately
perpetual
##emarket
duggar
twilight
cact
gators
##mall
shaved
souza
keane
calorie
windshield
labr
distillery
##efe
bruising
greywind
ardent
outpouring
withholding
demilitarized
paraguay
heynckes
1a
g20
jelly
seymour
arians
##azquez
##letown
competence
353
villas
ethos
lucie
jurassic
massey
vitamins
serbian
ernst
mellon
uninsured
ceramics
benfica
hoe
ys
##fors
##uni
unpl
repatri
headlined
restitution
limbo
trusting
rspca
earnhardt
assassin
temptation
paramedic
salsa
pessim
lys
ruck
##anj
parades
annum
307
##ometers
##renheit
paolo
typewr
citation
brokered
occupying
dialog
##aloosa
flavours
offspring
psychiatrist
litt
bew
beasley
tripp
unwa
cary
assange
##athom
musa
stockholders
broaden
racists
ohr
saturn
burner
1949
vivo
pirate
hilary
template
cohort
ahn
dime
het
##notes
##kumar
##esi
goof
amtrak
demar
slender
classmate
crossbar
villar
infrastruct
ventilation
nazism
fabio
raja
bosch
sylvester
nnpc
bledsoe
arundel
enshr
mx
oat
blumenthal
homepage
goodale
salford
focuss
silenced
bathing
predatory
francona
mirac
duly
canceling
ramsay
tablespoons
duluth
cascade
excerpts
fahrenheit
unsettling
cuff
yach
anime
atf
gru
##athe
oldham
metz
analyzes
representational
368
##ymes
ramps
gwyn
fulfillment
griezmann
abdominal
voltage
nightmares
dia
##reys
agile
##oused
##grade
##ylon
matteo
linden
lithu
brackets
thwarted
gruden
ht
jang
kag
tiles
##inted
##alities
##elier
coupe
agitation
##ondale
implying
regimes
arrows
sunscreen
micha
naidu
emphasizes
isolate
pledging
wrex
looting
heter
kj
lizz
wreat
restated
riske
berries
pedig
disclosing
adjustable
horrors
visionary
intervals
stirred
desserts
binghamton
##alc
##vez
ascent
##inky
deficiency
wrapper
modifications
diaries
clicked
viewership
supervisory
possesses
kyrgios
##uaries
##imal
##ectomy
##arti
parry
bele
##onta
##ruit
##ukwu
okla
softbank
fluor
kaplan
prescribe
##ojis
gpu
caesar
expansions
guth
shil
alamed
haunting
[...]
